<unk>	0
<s>	0
</s>	0
▁the	-3.74113
▁,	-3.86171
▁	-3.86244
▁の	-3.96676
▁、	-4.09235
▁(	-4.13193
▁)	-4.13357
▁of	-4.20975
▁に	-4.25344
▁.	-4.32059
▁。	-4.36638
▁は	-4.60948
▁and	-4.61067
▁た	-4.66247
▁る	-4.66617
▁を	-4.67159
s	-4.68504
▁と	-4.73267
ed	-4.75392
▁て	-4.80796
▁in	-4.82939
▁が	-4.85161
▁to	-4.88872
▁a	-4.92625
▁し	-4.92704
▁い	-4.92941
▁で	-5.00464
-	-5.03809
▁was	-5.10491
▁'	-5.18009
▁年	-5.30846
▁な	-5.4569
▁あ	-5.47012
▁れ	-5.47677
▁っ	-5.5228
▁is	-5.61035
ing	-5.64222
▁"	-5.70477
▁as	-5.70619
▁さ	-5.77708
▁も	-5.86682
▁・	-5.96438
▁that	-5.99904
▁by	-6.04201
「	-6.09011
▁」	-6.09027
▁する	-6.10268
▁no	-6.11991
▁for	-6.13083
▁The	-6.15211
▁with	-6.21703
▁he	-6.22553
▁on	-6.22673
▁り	-6.30937
▁月	-6.31507
▁from	-6.34503
▁his	-6.41322
▁日	-6.41365
▁う	-6.43173
ly	-6.44199
▁から	-6.44381
▁it	-6.48067
▁were	-6.50378
▁In	-6.51282
▁こと	-6.51633
e	-6.51863
▁which	-6.58427
▁at	-6.59325
▁く	-6.61289
▁:	-6.61655
▁who	-6.62377
▁-	-6.68427
▁や	-6.70896
▁よ	-6.72964
▁an	-6.76574
▁など	-6.76606
▁be	-6.76919
▁その	-6.77047
ji	-6.78538
▁are	-6.7954
er	-6.7961
▁or	-6.81394
▁られ	-6.81812
d	-6.84149
y	-6.84948
▁後	-6.85011
▁日本	-6.85185
▁ら	-6.87013
▁He	-6.89202
▁2	-6.89631
▁period	-6.90915
▁大	-6.91442
▁1	-6.95036
▁国	-6.96979
▁『	-6.97593
▁』	-6.97615
▁お	-7.00554
▁family	-7.01064
▁Emperor	-7.02799
▁3	-7.0316
▁Kyoto	-7.05221
▁時代	-7.05265
▁had	-7.0633
▁It	-7.07351
▁もの	-7.0871
▁but	-7.09319
▁this	-7.09533
▁also	-7.09685
▁not	-7.09801
▁この	-7.10563
▁一	-7.11612
▁家	-7.12792
▁天皇	-7.14054
in	-7.15292
▁clan	-7.15362
▁寺	-7.16692
▁市	-7.16823
▁つ	-7.17708
▁か	-7.18465
t	-7.18868
▁ため	-7.19071
▁わ	-7.22204
▁Temple	-7.22351
▁Japanese	-7.22387
▁Japan	-7.22498
▁的	-7.23663
▁京都	-7.25949
▁called	-7.27155
▁Province	-7.27167
▁4	-7.27702
n	-7.28777
i	-7.29584
▁Imperial	-7.30543
▁氏	-7.31016
▁また	-7.31277
▁7	-7.313
▁name	-7.31411
o	-7.32088
▁became	-7.341
▁よう	-7.34316
▁one	-7.34415
▁after	-7.35084
▁A	-7.35615
ko	-7.37578
▁10	-7.38046
▁8	-7.38322
り	-7.38378
▁中	-7.39167
▁City	-7.39285
shi	-7.3995
▁5	-7.40817
▁12	-7.41158
▁11	-7.42236
▁人	-7.43583
▁6	-7.45234
jo	-7.45319
▁such	-7.45745
▁;	-7.46262
no	-7.47119
▁す	-7.47416
▁行	-7.4772
▁been	-7.48883
▁これ	-7.50161
▁used	-7.51297
▁9	-7.51889
▁多	-7.52149
▁there	-7.53173
▁三	-7.53797
▁へ	-7.53932
▁have	-7.54203
▁Prefecture	-7.54944
▁when	-7.55997
▁上	-7.56732
al	-7.57198
▁ば	-7.57406
▁O	-7.57776
do	-7.58199
▁16	-7.59268
▁き	-7.60224
▁だ	-7.60997
▁time	-7.61537
▁者	-7.61769
▁15	-7.62716
し	-7.63412
子	-7.63725
▁so	-7.63827
sho	-7.67503
es	-7.67674
▁17	-7.67694
▁駅	-7.68527
▁their	-7.68872
th	-7.70302
▁高	-7.70968
▁they	-7.71544
▁other	-7.71642
▁長	-7.71659
▁son	-7.7243
れ	-7.7305
▁せ	-7.73859
▁県	-7.74053
▁into	-7.74229
▁dur	-7.7436
▁government	-7.76113
▁明治	-7.76126
▁Edo	-7.76762
▁first	-7.76822
▁made	-7.77029
▁has	-7.77804
ri	-7.78166
い	-7.78251
▁Station	-7.78396
to	-7.78515
▁13	-7.79114
▁代	-7.79569
▁下	-7.80468
▁His	-7.80617
▁第	-7.80887
▁山	-7.81461
m	-7.82865
▁神	-7.83698
▁本	-7.8386
▁head	-7.83898
▁people	-7.84397
▁まで	-7.846
▁said	-7.85414
ki	-7.85966
▁Howev	-7.86667
▁名	-7.86823
▁ん	-7.87047
cho	-7.87085
▁14	-7.87715
▁内	-7.88414
▁On	-7.88564
▁year	-7.89174
田	-7.89604
く	-7.89699
ん	-7.91319
▁新	-7.91719
ra	-7.9179
▁江戸	-7.92572
▁I	-7.92583
▁its	-7.94384
▁じ	-7.94479
▁出	-7.9497
▁Prince	-7.95406
▁院	-7.95452
▁Ko	-7.95458
▁通	-7.95621
▁because	-7.96209
▁元	-7.96697
st	-7.97391
▁under	-7.97457
▁時	-7.97691
▁町	-7.97859
ion	-7.98619
人	-7.98908
▁呼	-7.99349
▁between	-7.99448
▁正	-7.99741
▁かっ	-7.99774
so	-8.00876
▁見	-8.01656
▁藩	-8.01663
go	-8.01679
▁18	-8.02501
▁藤原	-8.03265
山	-8.03603
▁some	-8.03733
▁御	-8.0392
se	-8.0396
▁二	-8.04126
r	-8.04128
め	-8.04531
▁This	-8.05059
▁自	-8.05386
shu	-8.05402
▁later	-8.05411
ya	-8.05496
ta	-8.06146
▁しかし	-8.06467
▁現在	-8.06533
▁system	-8.06828
.	-8.07077
▁実	-8.07325
▁order	-8.07451
▁地	-8.07702
▁小	-8.07787
▁same	-8.08804
き	-8.08811
▁城	-8.09385
▁only	-8.09992
▁/	-8.10029
a	-8.1024
▁her	-8.11183
mi	-8.11497
▁two	-8.12567
▁Shrine	-8.13182
ro	-8.13244
▁間	-8.13539
▁宗	-8.14497
▁many	-8.14534
▁about	-8.14633
▁ず	-8.14716
▁法	-8.15203
▁対	-8.15206
▁位	-8.16996
▁court	-8.17074
▁前	-8.17277
▁out	-8.18338
▁After	-8.1848
て	-8.18568
▁up	-8.18669
え	-8.19044
▁where	-8.19609
▁FUJIWARA	-8.19814
に	-8.19885
▁義	-8.20098
▁元年	-8.20371
c	-8.20547
▁幕府	-8.2062
▁より	-8.20968
▁years	-8.21179
▁died	-8.21249
▁over	-8.21394
▁言	-8.21558
▁ま	-8.21614
ku	-8.21744
▁school	-8.22216
▁それ	-8.22335
▁Sho	-8.22495
▁天	-8.23106
年	-8.23532
ver	-8.23679
▁子	-8.24225
▁書	-8.2423
▁old	-8.25398
re	-8.25489
ら	-8.25521
▁So	-8.25767
▁軍	-8.25852
▁西	-8.2588
▁Castle	-8.25961
か	-8.26168
▁生	-8.26551
▁To	-8.26748
ation	-8.26886
▁石	-8.26929
▁旧暦	-8.27233
▁み	-8.27398
gi	-8.27575
▁main	-8.28124
家	-8.28247
▁rank	-8.28716
▁入	-8.28724
▁established	-8.29245
▁方	-8.29289
▁事	-8.29512
▁him	-8.29801
g	-8.29845
▁説	-8.29871
▁同	-8.30087
▁Al	-8.30135
▁temple	-8.3015
l	-8.30403
▁線	-8.3053
kan	-8.30718
▁them	-8.30719
da	-8.31027
▁father	-8.31232
tsu	-8.3129
▁Yoshi	-8.314
ka	-8.3159
▁three	-8.31878
▁権	-8.3188
▁well	-8.31966
ma	-8.32094
▁all	-8.32149
▁Buddhist	-8.32694
▁Rank	-8.32918
▁学	-8.33097
け	-8.33097
▁written	-8.33132
▁所	-8.33321
▁can	-8.33851
▁道	-8.34016
▁death	-8.34409
▁As	-8.34684
ru	-8.34695
kyo	-8.34825
▁end	-8.34899
▁position	-8.35018
▁む	-8.35347
力	-8.35479
ho	-8.35677
▁公	-8.35809
▁through	-8.35879
▁known	-8.35982
▁目	-8.36026
en	-8.36115
▁part	-8.36398
▁経	-8.36486
▁Taka	-8.3669
み	-8.37043
▁includ	-8.37095
▁present	-8.37341
▁とも	-8.37527
an	-8.38044
ン	-8.38252
▁bakufu	-8.38655
ga	-8.38668
▁神社	-8.38803
▁東	-8.38928
▁second	-8.3901
▁受け	-8.39415
▁than	-8.39632
▁記	-8.39985
▁area	-8.40341
▁20	-8.40477
▁四	-8.40672
chi	-8.40886
though	-8.40886
▁他	-8.41106
mon	-8.41289
々	-8.41346
▁従	-8.41421
▁being	-8.41983
▁she	-8.42327
▁府	-8.42946
▁文化	-8.42951
▁There	-8.43359
▁held	-8.4346
yo	-8.43798
▁父	-8.43964
▁場合	-8.44031
▁Shin	-8.44298
▁官	-8.45104
▁Kamakura	-8.45251
those	-8.455
▁昭和	-8.45614
▁Line	-8.45632
▁Go	-8.45643
u	-8.45715
定	-8.4578
▁rice	-8.4588
▁無	-8.45945
▁daughter	-8.46049
国	-8.46164
行	-8.46165
le	-8.46296
▁army	-8.46301
▁親王	-8.46678
▁then	-8.46931
ke	-8.47343
appointed	-8.4755
▁around	-8.47709
ー	-8.4803
▁流	-8.48097
▁平	-8.48144
bu	-8.48509
▁会	-8.48822
▁知	-8.49052
▁line	-8.49171
▁作	-8.4934
▁War	-8.49426
▁十	-8.49629
dai	-8.49661
▁郡	-8.49935
served	-8.50149
▁王	-8.50313
▁new	-8.50384
▁Court	-8.50527
▁歳	-8.50705
▁while	-8.50777
▁re	-8.50804
me	-8.50834
▁等	-8.5089
▁主	-8.51006
▁consider	-8.51034
gu	-8.51122
▁化	-8.51325
▁Domain	-8.51838
▁military	-8.51891
▁区	-8.52061
▁持	-8.52172
▁side	-8.52177
▁since	-8.52208
▁使	-8.5227
▁鎌倉	-8.52631
▁E	-8.52664
▁将軍	-8.5304
▁信	-8.53063
▁Ho	-8.53114
fu	-8.53185
▁金	-8.53277
▁不	-8.5334
地	-8.53392
gan	-8.53484
ba	-8.53528
▁place	-8.53649
な	-8.53701
ル	-8.53804
▁San	-8.53994
▁came	-8.54348
yama	-8.54407
na	-8.54513
▁Nara	-8.54586
名	-8.54644
or	-8.54937
▁際	-8.54945
▁style	-8.55251
▁Osaka	-8.55425
▁重	-8.55633
te	-8.55758
▁考え	-8.55871
▁young	-8.5589
▁でき	-8.55906
▁lord	-8.55914
zu	-8.55952
kai	-8.56283
▁post	-8.56477
▁特	-8.56501
▁like	-8.56515
▁locat	-8.56599
部	-8.56675
▁五	-8.56822
川	-8.57078
▁more	-8.57204
▁部	-8.57271
▁age	-8.57385
わ	-8.58186
▁Ka	-8.58202
ま	-8.584
▁Meiji	-8.58686
▁源	-8.588
出	-8.5897
p	-8.59148
▁priest	-8.59269
▁北	-8.5927
I	-8.59461
▁手	-8.59481
▁given	-8.59531
▁水	-8.59575
▁次	-8.59594
▁original	-8.59831
zo	-8.59868
▁official	-8.60146
▁館	-8.60608
den	-8.60778
▁howe	-8.60915
ment	-8.60925
▁MINAMOTO	-8.61098
長	-8.61244
[	-8.61291
▁following	-8.61499
▁]	-8.61523
▁文	-8.61852
▁shogun	-8.61854
間	-8.62128
▁万	-8.62278
▁Chinese	-8.6228
▁当時	-8.6246
▁bas	-8.62559
▁f	-8.62572
▁用い	-8.62578
▁宮	-8.62697
sen	-8.62721
▁each	-8.6281
▁B	-8.62874
▁Shi	-8.63057
▁local	-8.63082
▁took	-8.63242
▁Heian	-8.6353
▁伝	-8.63555
Junior	-8.64171
▁Ki	-8.64261
▁分	-8.64349
▁early	-8.64386
▁奈良	-8.64466
▁When	-8.64468
明	-8.64587
物	-8.64627
▁～	-8.64699
身	-8.64775
▁before	-8.64805
▁due	-8.65176
▁外	-8.65282
▁大臣	-8.65708
▁平安	-8.65738
▁down	-8.65815
門	-8.65873
b	-8.65892
▁de	-8.66433
shin	-8.66638
▁various	-8.67478
本	-8.68025
▁古	-8.68094
▁残	-8.68177
gawa	-8.68185
▁徳川	-8.68349
▁imperial	-8.68695
▁ぶ	-8.68789
▁power	-8.68875
wa	-8.69502
▁left	-8.69823
▁wife	-8.69949
▁brother	-8.69965
▁these	-8.70019
▁開	-8.70309
▁Tokyo	-8.70429
▁Palace	-8.70477
▁忠	-8.70561
▁U	-8.70806
▁旧	-8.71061
be	-8.7112
▁全	-8.71457
▁chief	-8.71471
sha	-8.7156
jinja	-8.7157
ne	-8.71596
▁great	-8.7165
su	-8.71787
▁station	-8.71818
▁day	-8.71946
▁Dai	-8.72267
▁back	-8.72373
原	-8.72588
▁title	-8.72795
▁明	-8.72888
野	-8.73033
▁大学	-8.73146
ge	-8.73284
▁region	-8.73293
refore	-8.73308
▁Kan	-8.73387
▁集	-8.73497
▁person	-8.73557
▁存在	-8.74226
▁even	-8.74298
▁両	-8.74351
bi	-8.74698
▁清	-8.74817
▁京	-8.74864
▁号	-8.74897
ち	-8.75063
用	-8.75112
宮	-8.75201
▁娘	-8.75281
▁南	-8.75287
▁派	-8.7529
▁安	-8.75291
▁立	-8.75301
ju	-8.75326
▁theory	-8.75375
た	-8.75412
▁would	-8.75462
▁sect	-8.75683
▁源氏	-8.75844
上	-8.75972
▁社	-8.76019
▁mother	-8.76091
▁Ward	-8.76095
道	-8.76449
▁go	-8.76522
▁数	-8.76706
▁did	-8.76866
ers	-8.77003
k	-8.77147
▁At	-8.77219
jin	-8.77544
▁shrine	-8.77627
▁long	-8.7779
▁become	-8.77881
▁against	-8.77949
▁なお	-8.77956
▁high	-8.78109
▁鉄道	-8.78126
▁Mi	-8.78205
▁Jo	-8.78223
▁Masa	-8.78469
▁samurai	-8.78485
ryo	-8.79007
▁守	-8.79021
▁era	-8.79054
▁Ku	-8.7925
▁feudal	-8.79547
▁八	-8.79575
mo	-8.79749
▁started	-8.79933
▁March	-8.8001
▁April	-8.80218
▁命	-8.80221
▁東京	-8.80222
▁war	-8.80385
▁both	-8.80793
▁land	-8.80839
記	-8.81038
bo	-8.81068
ll	-8.81082
▁himself	-8.81298
▁中国	-8.81455
じ	-8.81471
▁広	-8.81511
ther	-8.81605
仁	-8.81615
▁称	-8.81707
体	-8.82228
▁No	-8.82234
▁性	-8.82449
▁could	-8.82576
▁built	-8.82648
ten	-8.82698
▁most	-8.82839
sei	-8.83036
の	-8.83228
went	-8.83712
▁関	-8.84154
yoshi	-8.84757
中	-8.84809
▁Tada	-8.84837
▁物	-8.85168
sai	-8.85185
▁有	-8.85204
島	-8.85327
▁among	-8.8536
▁世	-8.85547
▁January	-8.85808
▁School	-8.8595
▁S	-8.86079
▁直	-8.86082
▁kami	-8.86652
yu	-8.86704
▁ancient	-8.86718
び	-8.86813
▁強	-8.8695
村	-8.87093
▁21	-8.87448
▁born	-8.87492
▁emperor	-8.87548
▁use	-8.88021
▁30	-8.88038
手	-8.88078
▁のみ	-8.88284
▁number	-8.88361
▁Sa	-8.88375
▁tea	-8.88469
元	-8.88487
▁別	-8.88775
▁関係	-8.88779
▁Buddhism	-8.8888
▁former	-8.88969
▁酒	-8.88982
▁学校	-8.89062
▁China	-8.89131
▁C	-8.89374
▁un	-8.89455
▁Fu	-8.89524
▁According	-8.89722
▁hand	-8.8974
▁addition	-8.89793
ic	-8.90168
▁母	-8.9029
ity	-8.9034
▁own	-8.90381
文	-8.90431
つ	-8.90509
able	-8.90549
政	-8.90757
▁当	-8.90858
▁Shu	-8.90902
▁だっ	-8.9103
和	-8.91374
▁足利	-8.91431
▁一般	-8.91432
▁教	-8.91457
屋	-8.91477
▁Mt	-8.91527
▁六	-8.91613
▁乱	-8.91717
▁book	-8.91724
san	-8.91777
▁ceremony	-8.91911
▁反	-8.92068
▁Kai	-8.92133
木	-8.92186
▁村	-8.9225
▁Naga	-8.92364
▁中心	-8.92491
▁often	-8.92557
▁形	-8.92609
▁以降	-8.92635
▁result	-8.92714
▁adopted	-8.9281
光	-8.92919
分	-8.93178
ha	-8.9318
▁enter	-8.93198
▁19	-8.93203
▁third	-8.9325
f	-8.9328
朝	-8.93301
▁物語	-8.93382
▁battle	-8.9352
主	-8.93684
▁巻	-8.93814
▁sho	-8.93936
書	-8.93952
▁領	-8.93981
▁July	-8.94012
者	-8.94146
▁group	-8.9422
on	-8.94316
▁25	-8.94432
▁October	-8.94446
masa	-8.94737
成	-8.94903
▁above	-8.95066
ies	-8.95244
▁For	-8.95292
ce	-8.95383
ar	-8.95467
ス	-8.95477
▁武	-8.95532
▁Do	-8.95537
▁times	-8.95575
▁May	-8.95579
内	-8.9563
▁回	-8.95909
▁large	-8.96059
▁地方	-8.96075
▁和	-8.96102
▁期	-8.96216
▁おけ	-8.96515
za	-8.9652
gaku	-8.96576
▁work	-8.96758
▁頼	-8.96808
▁Ma	-8.96928
▁Sen	-8.96952
▁歌	-8.97017
gen	-8.97135
▁Nobu	-8.97178
▁とき	-8.97235
方	-8.97244
事	-8.97312
法	-8.97334
▁different	-8.97383
学	-8.97407
▁way	-8.97435
▁fact	-8.97816
▁August	-8.97825
ni	-8.97851
▁February	-8.97859
▁state	-8.97875
が	-8.97955
▁play	-8.98246
▁大阪	-8.98296
▁土	-8.98567
▁相	-8.9875
位	-8.98836
▁December	-8.99037
▁JR	-8.99507
治	-8.99591
▁七	-8.99607
dori	-8.99676
▁Period	-8.99856
▁sake	-8.99926
▁Minister	-9.00226
▁domain	-9.00358
moto	-9.00405
ie	-9.00446
合	-9.00539
▁Ya	-9.00647
▁succeed	-9.00682
▁m	-9.00683
▁使用	-9.00994
▁白	-9.01015
▁戦	-9.0107
気	-9.01197
▁until	-9.01198
▁かけ	-9.01302
▁24	-9.01389
▁attack	-9.014
▁visit	-9.0154
徳	-9.01714
▁総	-9.01718
▁さらに	-9.01804
▁do	-9.01807
▁円	-9.01867
▁研究	-9.01891
▁Nobunaga	-9.02105
ど	-9.02145
▁世紀	-9.02416
▁vassal	-9.02442
▁Ta	-9.02499
▁Sei	-9.02547
lo	-9.02574
▁財	-9.02637
▁得	-9.02663
▁翌	-9.02666
▁戦い	-9.02689
神	-9.02718
▁成	-9.02783
▁頃	-9.02826
▁例	-9.02899
▁changed	-9.02924
▁P	-9.0293
▁September	-9.02944
▁Buddha	-9.02968
▁Hideyoshi	-9.03036
▁永	-9.03177
mori	-9.03325
▁days	-9.03333
▁without	-9.03663
▁生まれ	-9.03764
▁four	-9.03895
▁任	-9.0392
▁Ji	-9.03934
▁Shinto	-9.04005
▁現	-9.04131
▁National	-9.04204
▁諸	-9.04248
▁century	-9.04263
生	-9.0468
O	-9.0476
▁制	-9.04788
▁川	-9.04898
▁都	-9.04915
▁support	-9.04961
▁皇子	-9.04978
▁千	-9.04982
▁Su	-9.04993
▁再	-9.05033
▁others	-9.05102
▁大名	-9.05112
▁if	-9.05122
▁22	-9.0519
suke	-9.05197
▁23	-9.05361
w	-9.05485
▁November	-9.05516
▁form	-9.05593
▁信長	-9.05637
▁another	-9.05878
▁history	-9.05968
▁僧	-9.06006
院	-9.06092
▁University	-9.06118
▁literal	-9.06189
井	-9.06191
▁語	-9.06212
流	-9.06357
▁役	-9.06424
▁式	-9.06478
using	-9.06543
平	-9.06796
▁政	-9.06848
▁office	-9.06863
城	-9.07027
▁water	-9.07179
▁Yamato	-9.07303
▁An	-9.07368
前	-9.0742
▁c	-9.07477
信	-9.07486
de	-9.07532
こ	-9.0771
▁光	-9.07794
ance	-9.0781
▁means	-9.07881
▁堂	-9.08201
▁Cho	-9.08217
▁28	-9.08236
▁child	-9.08248
▁Kin	-9.08258
▁Muromachi	-9.08382
▁general	-9.08599
▁約	-9.08615
▁capital	-9.08626
▁will	-9.08781
▁regard	-9.08874
▁along	-9.08946
la	-9.09088
▁section	-9.09182
▁応	-9.09225
▁according	-9.09254
▁結	-9.09259
▁仏	-9.09304
▁hall	-9.09412
▁納言	-9.09436
mu	-9.09446
見	-9.09563
▁make	-9.0957
▁Mitsu	-9.09582
▁temples	-9.09789
▁Grade	-9.09809
tai	-9.09844
▁共	-9.09939
▁Gen	-9.09945
▁koku	-9.10015
▁Wa	-9.10019
▁June	-9.10029
▁residence	-9.10093
▁Battle	-9.10249
▁指	-9.10315
▁ながら	-9.10438
▁birth	-9.10459
▁TOKUGAWA	-9.1047
ng	-9.10475
▁Zen	-9.10615
▁松	-9.1067
▁should	-9.10707
▁right	-9.10737
永	-9.1087
▁彼	-9.10887
州	-9.11113
ラ	-9.11231
▁castle	-9.11232
リ	-9.11616
▁Uji	-9.11651
▁ち	-9.11735
ば	-9.11844
面	-9.11883
▁unknown	-9.11966
義	-9.12167
寺	-9.12248
▁図	-9.12288
▁Ten	-9.12346
津	-9.1252
sa	-9.12574
▁女	-9.12574
▁lived	-9.12576
▁勢	-9.12613
口	-9.12685
▁Shige	-9.12867
▁秀吉	-9.12868
▁各	-9.12966
場	-9.12978
▁set	-9.13235
▁life	-9.1351
▁Railway	-9.13598
▁important	-9.13644
▁発	-9.13906
▁Sada	-9.13959
▁真	-9.14078
▁海	-9.14107
▁朝	-9.14306
x	-9.14438
▁Co	-9.14445
▁重要	-9.14462
▁Ken	-9.14487
▁歴史	-9.14492
▁室町	-9.1453
▁与え	-9.14532
▁master	-9.14889
▁River	-9.149
▁Empress	-9.1492
▁用	-9.14931
gyo	-9.14978
▁側	-9.15018
▁statue	-9.15087
▁families	-9.15151
▁27	-9.15249
▁意味	-9.15287
▁継	-9.15421
▁Ju	-9.15455
▁Yasu	-9.15548
▁g	-9.15834
▁world	-9.15911
▁members	-9.15961
▁Yori	-9.16139
▁national	-9.16151
▁man	-9.16208
▁believ	-9.16302
▁置	-9.16322
▁together	-9.16348
▁先	-9.16375
age	-9.16409
kata	-9.16586
▁進	-9.16599
▁member	-9.16602
S	-9.16612
▁首	-9.16652
入	-9.16734
▁しま	-9.16783
▁o	-9.16897
▁Yo	-9.16983
▁thought	-9.16985
▁trains	-9.17001
▁late	-9.17115
▁木	-9.17234
ur	-9.17268
ck	-9.17272
▁こ	-9.1754
▁traditional	-9.17543
▁花	-9.17596
▁promoted	-9.17843
▁事件	-9.17969
▁像	-9.18126
▁five	-9.18189
▁良	-9.18194
gun	-9.18219
having	-9.1825
禄	-9.18391
▁service	-9.18512
崎	-9.18586
▁Moto	-9.18662
mura	-9.18745
さ	-9.18747
▁away	-9.18757
▁だけ	-9.18868
▁term	-9.19093
ryu	-9.19122
▁public	-9.19172
▁品	-9.19341
▁26	-9.19405
▁small	-9.1943
▁house	-9.19489
zan	-9.19662
イ	-9.19869
所	-9.1991
▁Gon	-9.20126
▁職	-9.20238
▁続	-9.20256
▁daimyo	-9.20275
▁政治	-9.20285
ter	-9.20313
taka	-9.20345
▁朝廷	-9.20446
▁民	-9.20457
▁train	-9.20458
▁put	-9.20514
▁led	-9.20554
▁ところ	-9.20794
nin	-9.20861
▁為	-9.20921
▁ASHIKAGA	-9.21039
▁p	-9.2104
▁一部	-9.21089
▁こう	-9.21116
▁同年	-9.21245
▁ko	-9.21262
po	-9.21319
▁produc	-9.21394
man	-9.21402
立	-9.21465
ive	-9.21576
▁たち	-9.21624
▁Genji	-9.21684
▁take	-9.21772
▁以下	-9.21782
myo	-9.21816
▁political	-9.21993
▁En	-9.22149
li	-9.22236
政府	-9.22312
▁師	-9.22409
代	-9.22647
▁She	-9.22665
ally	-9.22842
▁Since	-9.2295
▁governor	-9.22966
il	-9.23063
▁右	-9.23102
町	-9.23172
▁still	-9.23201
▁勝	-9.23276
日	-9.23299
▁織田	-9.23422
▁守護	-9.23458
ary	-9.23586
▁武士	-9.23606
▁half	-9.23649
▁唐	-9.23672
▁T	-9.23686
▁思	-9.23689
▁地域	-9.23751
▁calendar	-9.23884
▁系	-9.23938
▁real	-9.23991
rin	-9.24033
▁described	-9.2408
▁common	-9.24158
持	-9.24219
▁ten	-9.24344
▁front	-9.24421
▁received	-9.24422
▁度	-9.24579
実	-9.24636
▁control	-9.24661
▁伝え	-9.24732
▁Omi	-9.24762
▁たり	-9.24845
▁論	-9.25003
h	-9.25088
▁べ	-9.25174
▁Shogun	-9.25177
▁バス	-9.25183
▁Senior	-9.253
▁F	-9.25454
▁historical	-9.25479
▁弟	-9.25542
▁Ieyasu	-9.25562
▁門	-9.25579
shiki	-9.25589
務	-9.25593
hi	-9.25598
▁定	-9.2576
母	-9.25829
▁b	-9.25858
▁条	-9.2587
▁祭	-9.25896
▁死	-9.25952
目	-9.25953
koku	-9.26027
▁29	-9.2613
▁島	-9.26156
NO	-9.26255
▁左	-9.26287
▁children	-9.26447
来	-9.26851
▁車	-9.26876
▁building	-9.27043
▁say	-9.27163
▁省	-9.2721
▁Toshi	-9.27266
▁country	-9.27335
▁人物	-9.2737
nomiya	-9.27404
kawa	-9.27608
▁Street	-9.27632
▁branch	-9.27697
▁found	-9.27734
▁茶	-9.27757
▁一方	-9.27854
▁造	-9.28
tada	-9.28055
▁shrines	-9.28106
▁ア	-9.28275
▁Re	-9.28485
▁referr	-9.28497
▁大き	-9.28562
▁Yu	-9.28615
▁移	-9.28631
▁あた	-9.28831
▁うち	-9.28886
▁ho	-9.29082
▁組	-9.29126
▁朝鮮	-9.29218
▁風	-9.29305
▁Kyo	-9.29402
machi	-9.29428
▁charge	-9.29446
▁any	-9.29553
軍	-9.29677
▁豊	-9.29793
久	-9.30025
▁死去	-9.3006
▁god	-9.30155
▁Mori	-9.30208
▁Ha	-9.30209
下	-9.30337
ト	-9.30346
▁middle	-9.30519
moved	-9.30523
作	-9.3057
王	-9.30612
▁初	-9.30627
▁以後	-9.30754
▁Hi	-9.30777
▁末	-9.30822
▁Tsu	-9.30867
▁基	-9.30936
▁ある	-9.31109
▁面	-9.31137
▁example	-9.31224
げ	-9.31268
▁仏教	-9.31375
▁ただし	-9.31391
est	-9.31465
女	-9.31729
▁貞	-9.3174
▁you	-9.31769
▁Ni	-9.31819
ぼ	-9.31856
▁good	-9.31857
▁近	-9.31876
▁家康	-9.31945
▁sent	-9.31964
▁point	-9.31992
▁設置	-9.31995
形	-9.32002
▁親	-9.32068
▁常	-9.32137
▁Dur	-9.32283
▁They	-9.32402
nori	-9.32631
▁頭	-9.32662
SHI	-9.32822
▁Yoritomo	-9.32984
kei	-9.3303
▁Tai	-9.33057
▁支配	-9.33097
naga	-9.33162
▁killed	-9.33185
▁保	-9.33263
un	-9.33296
▁至	-9.33365
hira	-9.33557
▁fire	-9.33661
▁点	-9.33666
ken	-9.33784
zen	-9.3384
心	-9.33875
▁影響	-9.3397
▁治	-9.34271
▁Hiro	-9.3437
▁もと	-9.34406
el	-9.34409
▁表	-9.34449
▁show	-9.34587
▁様	-9.34602
▁mountain	-9.34678
▁成立	-9.34745
月	-9.34785
▁Sai	-9.3483
▁兵	-9.34856
盛	-9.34952
▁Tokugawa	-9.34996
▁加	-9.3501
hito	-9.35045
▁Toki	-9.35186
世	-9.3521
▁兼	-9.35571
▁尊	-9.35626
it	-9.35665
▁心	-9.35667
ve	-9.35678
roku	-9.35825
▁included	-9.35836
▁同じ	-9.35837
hime	-9.35868
▁defeat	-9.35944
勢	-9.35966
▁designat	-9.35992
▁very	-9.36001
▁music	-9.36058
▁屋	-9.36144
▁passed	-9.36192
う	-9.36209
▁北条	-9.36359
▁performed	-9.36367
▁ひ	-9.36391
大	-9.36411
数	-9.36466
▁Ise	-9.36525
▁now	-9.36778
▁join	-9.36836
nobu	-9.36868
▁gave	-9.36929
蔵	-9.37074
▁以上	-9.37098
ti	-9.37197
水	-9.37214
ク	-9.37307
▁連	-9.37432
色	-9.37435
DA	-9.37695
▁カ	-9.37718
▁画	-9.37737
▁深	-9.37751
▁岩	-9.3783
▁close	-9.37858
▁原	-9.381
mp	-9.38161
▁TAIRA	-9.38249
ry	-9.38302
bon	-9.38498
室	-9.38512
▁popular	-9.38603
▁direct	-9.38713
▁米	-9.38724
▁last	-9.38848
▁そし	-9.38866
▁center	-9.38877
▁Princess	-9.38954
▁のち	-9.39023
▁建	-9.393
▁case	-9.39356
▁Ryo	-9.3948
▁Han	-9.39482
▁areas	-9.39505
▁初期	-9.39638
▁word	-9.39707
▁publish	-9.39717
▁story	-9.398
士	-9.39809
▁paper	-9.39847
▁Hide	-9.39849
命	-9.39867
nari	-9.39891
▁寺院	-9.39995
▁returned	-9.40196
と	-9.4027
▁names	-9.40281
▁口	-9.40541
▁要	-9.40612
▁Nishi	-9.40715
楽	-9.40742
pe	-9.40812
▁番	-9.40812
▁100	-9.40841
▁田	-9.40912
▁Southern	-9.4095
岡	-9.40954
kuni	-9.41051
▁tri	-9.41061
橋	-9.41102
式	-9.41154
▁type	-9.41214
▁?	-9.41219
ent	-9.41443
之	-9.41443
▁合	-9.41451
▁力	-9.4164
業	-9.41646
▁seen	-9.41704
▁today	-9.41773
▁Taira	-9.41979
シ	-9.42054
▁issued	-9.42072
▁art	-9.4214
▁殿	-9.42153
ろ	-9.42225
▁頼朝	-9.42263
▁created	-9.42266
▁豊臣	-9.42293
込	-9.42346
▁Lower	-9.42459
▁Na	-9.42539
▁County	-9.42597
▁Kami	-9.42643
▁Bus	-9.42657
▁京阪	-9.4268
座	-9.4273
shima	-9.42779
▁lost	-9.42939
安	-9.42947
▁e	-9.42961
ぎ	-9.43026
kaku	-9.43066
▁Northern	-9.432
▁next	-9.43331
▁Dynasty	-9.43422
chu	-9.43485
▁territory	-9.43507
▁吉	-9.43551
▁時期	-9.43572
ness	-9.43573
▁大和	-9.43587
▁al	-9.43722
▁今	-9.4373
▁books	-9.43888
▁利用	-9.44044
▁祖	-9.44092
▁ka	-9.44125
▁可能	-9.44169
谷	-9.44205
▁sometime	-9.44267
▁令	-9.44339
▁帰	-9.44648
▁支	-9.44654
ct	-9.44871
伝	-9.44978
ichi	-9.44995
▁famous	-9.45012
▁藤	-9.45024
▁赤	-9.45146
▁off	-9.45272
▁refers	-9.4529
mono	-9.453
▁及び	-9.45375
説	-9.45403
▁伊勢	-9.45419
▁場	-9.45749
▁Later	-9.45954
tsuna	-9.45984
▁come	-9.45985
▁study	-9.4604
▁developed	-9.46075
房	-9.46115
min	-9.46227
▁works	-9.4623
▁Ministry	-9.46311
▁major	-9.46356
▁ぐ	-9.46431
▁Korea	-9.46531
称	-9.4666
▁law	-9.46691
福	-9.46698
▁Governor	-9.46945
▁Incident	-9.46945
▁shogunate	-9.46959
▁能	-9.47046
▁大正	-9.47069
線	-9.47069
▁include	-9.47167
▁every	-9.47221
▁取り	-9.47225
▁秀	-9.47253
▁etc	-9.47354
▁north	-9.47358
▁again	-9.47367
▁若	-9.47368
▁伴	-9.47386
▁construction	-9.47487
▁making	-9.47588
▁modern	-9.47594
号	-9.4764
▁may	-9.47654
TA	-9.47722
lu	-9.47725
▁poems	-9.47726
yaku	-9.47789
▁Kuni	-9.47833
▁relationship	-9.47904
▁New	-9.47909
っ	-9.48001
▁role	-9.48094
風	-9.48198
▁渡	-9.48253
制	-9.48287
任	-9.48354
▁体	-9.48357
▁noble	-9.48412
▁Fro	-9.48466
mitsu	-9.48501
▁制度	-9.48559
▁ほ	-9.4865
だ	-9.48705
▁Noh	-9.48746
▁養子	-9.48754
▁special	-9.48763
▁ふ	-9.48792
▁ほか	-9.4885
せ	-9.48877
▁view	-9.48903
▁rule	-9.49154
yasu	-9.49196
経	-9.49224
▁private	-9.49242
害	-9.49426
カ	-9.49428
▁戦争	-9.4943
▁列車	-9.49431
▁sword	-9.49442
▁世界	-9.49484
▁Hon	-9.49494
▁Hall	-9.49539
tsugu	-9.49662
チ	-9.49694
▁興	-9.49742
son	-9.49819
▁plac	-9.4986
▁origin	-9.49867
▁east	-9.50019
▁just	-9.50053
▁描	-9.50078
day	-9.50216
at	-9.50228
際	-9.50254
▁天正	-9.50292
▁慶長	-9.5033
▁forces	-9.50385
shige	-9.50408
一	-9.50461
▁近江	-9.50462
▁stone	-9.50477
▁まま	-9.50496
▁Nori	-9.50633
▁express	-9.50728
▁top	-9.50729
▁料理	-9.50838
▁隊	-9.50895
▁town	-9.50922
▁久	-9.50959
▁必要	-9.51024
▁半	-9.5105
▁ほど	-9.51259
ban	-9.51271
▁以外	-9.51454
dan	-9.51498
yori	-9.51498
▁シ	-9.51505
▁春	-9.5167
um	-9.51711
ty	-9.5172
▁provincial	-9.51737
▁once	-9.51804
ous	-9.5181
mei	-9.51969
▁皇	-9.5211
▁exist	-9.52197
化	-9.5238
▁Se	-9.52449
▁兄	-9.52506
▁変	-9.52509
族	-9.52587
▁早	-9.52615
▁city	-9.52658
ジ	-9.5275
度	-9.52797
▁船	-9.52839
ノ	-9.5288
▁作品	-9.52897
michi	-9.52928
ei	-9.53063
いは	-9.53073
▁Kei	-9.53168
▁戦国	-9.53212
▁reason	-9.53319
▁seem	-9.53374
▁没	-9.53389
,000	-9.53424
通	-9.53427
▁含	-9.53462
▁火	-9.53526
▁取	-9.53588
倉	-9.53639
石	-9.53784
▁site	-9.53795
▁食	-9.53802
▁異	-9.53834
▁起こ	-9.53909
sada	-9.53917
▁Kanto	-9.54134
▁→	-9.54198
▁ノ	-9.54203
▁登場	-9.543
▁ろ	-9.54323
C	-9.54335
▁remain	-9.5444
▁宝	-9.54456
▁後期	-9.54464
動	-9.54507
▁nobles	-9.54521
▁Keihan	-9.54675
▁観	-9.5469
▁細川	-9.54694
▁business	-9.54737
▁律令	-9.54784
▁Some	-9.54883
▁dis	-9.54899
▁retainer	-9.54907
▁ODA	-9.55042
yuki	-9.55074
▁Ie	-9.55153
▁commander	-9.55273
親	-9.55278
▁私	-9.55334
▁紀	-9.5543
tsune	-9.55448
沢	-9.55554
意	-9.55598
▁妻	-9.55622
fusa	-9.55739
臣	-9.55859
▁部分	-9.55957
▁fu	-9.55966
▁局	-9.55998
KI	-9.56013
▁家臣	-9.56051
集	-9.56057
▁House	-9.56223
▁指定	-9.56303
よび	-9.56318
▁several	-9.56323
良	-9.56368
▁ra	-9.56387
▁influence	-9.56513
▁Higashi	-9.56551
▁characters	-9.56559
▁ス	-9.5661
▁co	-9.5664
ted	-9.56676
▁在	-9.56695
▁troops	-9.56826
▁retir	-9.56868
co	-9.56944
▁enshrined	-9.57041
▁福	-9.57223
▁鉄	-9.57291
▁最	-9.57356
▁座	-9.57396
▁伏見	-9.57473
時	-9.57502
▁construct	-9.57578
▁住	-9.5764
▁Fifth	-9.57776
民	-9.57936
▁Division	-9.57979
▁Family	-9.57979
▁年間	-9.58052
▁meaning	-9.58062
▁改	-9.58123
取	-9.5815
▁Sect	-9.58193
▁t	-9.58217
va	-9.58223
▁assumed	-9.5824
る	-9.58292
▁藩主	-9.58347
▁Michi	-9.58372
▁=	-9.584
ated	-9.58441
▁officials	-9.58456
▁史	-9.58533
▁home	-9.58567
▁introduced	-9.58589
is	-9.58609
ran	-9.58648
men	-9.58653
▁古墳	-9.58695
▁situation	-9.5871
ッ	-9.58714
▁incident	-9.58743
▁代表	-9.58753
▁仕え	-9.58759
▁百	-9.58884
▁Aki	-9.58981
▁Bu	-9.59025
▁Ga	-9.59096
▁Office	-9.59101
▁relat	-9.59103
統	-9.59159
▁shi	-9.59243
議	-9.59366
▁contain	-9.59429
▁Chi	-9.59442
海	-9.59471
▁description	-9.59564
▁De	-9.59582
▁不明	-9.59666
▁collection	-9.59682
▁class	-9.59684
▁以前	-9.59829
▁身	-9.59893
one	-9.59911
▁盛	-9.59989
tu	-9.60052
▁Matsu	-9.60069
官	-9.60123
▁character	-9.60157
量	-9.60241
▁記録	-9.60398
▁転	-9.60435
▁Ichi	-9.60467
ought	-9.60493
▁台	-9.60573
▁transferr	-9.607
▁貴族	-9.60759
bun	-9.60771
▁consist	-9.60786
▁con	-9.60786
▁はじめ	-9.60809
▁Great	-9.60861
綱	-9.60978
▁One	-9.60979
▁current	-9.61015
▁Cultural	-9.61017
YA	-9.61191
▁Naka	-9.6129
▁Nao	-9.61292
▁status	-9.61332
▁follow	-9.61349
▁Museum	-9.61436
▁soldiers	-9.61436
▁示	-9.61463
▁appeared	-9.6154
▁increase	-9.61542
造	-9.61586
▁strong	-9.61645
▁映画	-9.61752
▁廃止	-9.61913
理	-9.6192
や	-9.61923
▁south	-9.61931
▁palace	-9.61963
▁専	-9.62039
▁公家	-9.62052
▁即位	-9.62125
▁女性	-9.62128
▁そこ	-9.62183
▁び	-9.62241
▁return	-9.62264
▁Fushimi	-9.62321
▁short	-9.6238
▁Take	-9.62403
▁自ら	-9.62405
▁cultural	-9.62408
向	-9.62526
▁務め	-9.62546
す	-9.62551
▁着	-9.62566
▁west	-9.62607
▁force	-9.62635
▁Fujiwara	-9.62654
▁それぞ	-9.62712
▁room	-9.62739
▁stage	-9.62759
格	-9.62784
▁beginning	-9.62864
▁throne	-9.62864
ist	-9.62924
宗	-9.62959
sh	-9.62977
▁少な	-9.63041
hei	-9.6305
まり	-9.63064
▁ma	-9.63076
▁店	-9.63098
▁Man	-9.63131
マ	-9.63147
▁Tomo	-9.63151
▁bus	-9.6317
▁culture	-9.63184
▁unit	-9.63206
▁収	-9.63293
▁悪	-9.63416
▁History	-9.63453
▁Sane	-9.63548
高	-9.63565
▁継承	-9.6362
less	-9.63642
▁異な	-9.63796
政権	-9.63801
▁中央	-9.63831
▁see	-9.63986
▁minister	-9.64043
▁達	-9.64102
常	-9.6411
E	-9.64153
▁Tsune	-9.64174
▁Tang	-9.64236
▁気	-9.64241
領	-9.64262
ざ	-9.64276
ぶ	-9.64286
▁Mu	-9.64303
頼	-9.6438
▁一族	-9.64404
▁絵	-9.64415
▁Tale	-9.64466
ch	-9.6458
▁Kiyo	-9.64581
▁Western	-9.64638
▁village	-9.64642
字	-9.64715
▁記述	-9.64761
言	-9.64867
▁衆	-9.65099
out	-9.65133
▁同様	-9.65201
▁全国	-9.65345
保	-9.65351
▁gate	-9.65432
▁ha	-9.65459
▁carri	-9.65487
▁具	-9.6552
▁Kyushu	-9.65527
▁ここ	-9.65532
▁姿	-9.65548
▁food	-9.65579
▁浄土	-9.65675
戦	-9.6568
質	-9.65719
▁延	-9.65756
▁馬	-9.65807
▁retainers	-9.65826
▁dance	-9.65852
助	-9.65861
▁中期	-9.65885
NA	-9.66149
▁...	-9.66169
▁平成	-9.6621
▁退	-9.66265
▁Sengoku	-9.66284
katsu	-9.66319
T	-9.66351
▁推	-9.66398
ecause	-9.66433
等	-9.66438
▁何	-9.66594
暦	-9.66696
▁kan	-9.66744
▁各地	-9.66753
▁cases	-9.6677
▁黒	-9.668
後	-9.66816
pa	-9.66823
▁電	-9.6687
太郎	-9.66966
▁similar	-9.66996
▁month	-9.67019
初	-9.67075
▁廃	-9.67088
▁始め	-9.67116
ant	-9.67289
▁問題	-9.67387
▁参照	-9.67388
産	-9.6747
▁fourth	-9.67527
吉	-9.67527
白河	-9.67532
ア	-9.67568
▁社会	-9.67568
A	-9.67577
▁独	-9.67591
▁醍醐	-9.67609
ウ	-9.67645
ム	-9.67656
▁instead	-9.67749
▁grant	-9.67833
▁allowed	-9.67835
東	-9.67911
進	-9.67932
▁意	-9.67995
▁hi	-9.68083
ナ	-9.68177
vi	-9.68188
▁仲	-9.68279
▁結果	-9.68284
▁run	-9.68355
▁就任	-9.68509
▁en	-9.68558
▁founded	-9.68621
▁Jin	-9.68654
堂	-9.68682
▁compil	-9.68707
ism	-9.68816
▁Chu	-9.68816
ate	-9.68848
han	-9.68923
ron	-9.68987
▁音	-9.69022
continued	-9.69081
▁founder	-9.69132
▁位置	-9.69144
▁West	-9.69206
▁poetry	-9.69247
▁調	-9.69265
rei	-9.6935
重	-9.69417
named	-9.69499
正	-9.69551
▁record	-9.69562
利	-9.69575
brought	-9.69586
▁入れ	-9.69587
キ	-9.69668
▁waka	-9.69683
ful	-9.69689
oka	-9.69758
▁如	-9.69855
▁Guards	-9.70018
▁武田	-9.70061
ロ	-9.70064
▁Nihon	-9.70136
▁種	-9.70161
ence	-9.70437
ja	-9.70451
▁J	-9.70458
▁taken	-9.70511
会	-9.70606
▁fish	-9.70633
▁base	-9.7068
▁sa	-9.70705
▁横	-9.70742
▁Minamoto	-9.70787
▁伊	-9.70793
▁Main	-9.70856
▁夜	-9.70952
▁Festival	-9.7096
▁31	-9.70983
▁優	-9.70989
▁認め	-9.71018
dera	-9.71119
▁meters	-9.71146
▁率	-9.71192
▁近衛	-9.71194
▁竹	-9.71291
コ	-9.71325
▁body	-9.71344
▁ask	-9.71366
▁丸	-9.71459
▁関東	-9.71496
gin	-9.71519
hara	-9.7157
▁lower	-9.71579
MI	-9.71635
▁mentioned	-9.71713
▁final	-9.71898
▁Kita	-9.71941
▁countries	-9.71947
▁image	-9.7196
▁50	-9.72018
▁method	-9.72133
▁M	-9.72166
器	-9.72323
味	-9.72349
▁美	-9.72373
▁religious	-9.72414
▁加え	-9.72513
ci	-9.72649
路	-9.72682
▁Kannon	-9.72708
▁増	-9.72783
▁Third	-9.72825
外	-9.72846
▁Ro	-9.72872
▁にて	-9.72878
▁許	-9.72962
et	-9.72983
夷	-9.73002
▁sea	-9.73143
▁act	-9.73241
▁三条	-9.73249
▁san	-9.73329
▁公卿	-9.73358
▁places	-9.7338
▁tax	-9.73381
▁Satsuma	-9.73476
▁色	-9.73486
▁付	-9.73503
as	-9.73515
▁wrote	-9.73534
▁schools	-9.73573
maru	-9.73629
頭	-9.73648
▁kind	-9.73661
▁子孫	-9.73664
▁解	-9.73668
▁活動	-9.73775
権	-9.73813
▁更	-9.73842
ね	-9.74086
▁caus	-9.7409
haru	-9.74093
▁話	-9.74107
▁定め	-9.74123
10	-9.74135
▁殺	-9.74198
▁words	-9.74238
▁字	-9.74327
▁有力	-9.74365
▁遺	-9.74388
▁G	-9.74399
▁Second	-9.74426
勝	-9.74507
▁opened	-9.74588
▁蔵	-9.74594
maro	-9.74698
▁教育	-9.74732
seki	-9.7475
督	-9.74798
▁霊	-9.74807
▁Ei	-9.74838
▁参	-9.74875
▁completed	-9.74934
▁Mune	-9.74938
▁青	-9.74939
▁曲	-9.74952
toku	-9.7517
▁周	-9.75241
over	-9.75287
bashi	-9.75308
▁之	-9.75313
▁え	-9.75356
▁Further	-9.75448
▁six	-9.75492
tic	-9.75524
▁deity	-9.7555
▁what	-9.75597
▁出家	-9.75725
▁失	-9.75785
応	-9.75924
▁舞鶴	-9.75933
▁Jodo	-9.75947
発	-9.76045
tori	-9.76058
▁Miya	-9.76061
殿	-9.76116
▁monk	-9.7626
▁documents	-9.76273
▁generation	-9.76403
▁男	-9.76566
sui	-9.76641
▁painting	-9.76644
▁decided	-9.76732
ian	-9.76756
▁remains	-9.76777
▁Mo	-9.76797
▁men	-9.76805
▁未	-9.76834
v	-9.76893
▁company	-9.76908
▁spread	-9.77001
▁festival	-9.77031
▁討	-9.77078
▁選	-9.77143
aki	-9.7719
▁mi	-9.77215
▁奉行	-9.77229
▁councilor	-9.77271
▁開始	-9.77342
▁eight	-9.77371
▁対立	-9.77389
▁TOYOTOMI	-9.774
▁Korean	-9.77477
jiro	-9.77617
▁Road	-9.77647
付	-9.77675
▁長男	-9.77753
瀬	-9.7777
▁W	-9.77801
タ	-9.77813
▁一人	-9.77823
nd	-9.77873
▁階	-9.77907
▁These	-9.77979
然	-9.77992
▁Yama	-9.78015
▁amount	-9.78018
upon	-9.7808
▁切	-9.78082
▁末期	-9.78088
uji	-9.78132
▁好	-9.78144
▁reach	-9.78158
▁単	-9.78203
▁western	-9.78297
点	-9.78359
男	-9.78368
▁2006	-9.78531
▁operation	-9.78537
▁marri	-9.78567
▁武家	-9.78636
▁provinces	-9.78704
▁plan	-9.78846
▁系統	-9.78901
more	-9.78992
▁affairs	-9.7901
▁Right	-9.79016
style	-9.7906
▁足	-9.79063
guchi	-9.79088
▁二条	-9.79095
▁九	-9.79158
▁red	-9.79201
ai	-9.79222
▁women	-9.7933
▁マ	-9.79331
▁宇治	-9.79336
▁演	-9.79346
▁Gi	-9.79367
ial	-9.79369
▁書紀	-9.79466
▁野	-9.79475
▁荘園	-9.79519
▁highest	-9.79542
▁read	-9.79551
rai	-9.79569
▁追	-9.79643
▁信仰	-9.79646
▁志	-9.79702
▁当主	-9.79801
▁享	-9.79877
▁Route	-9.79895
能	-9.7991
▁stop	-9.79979
▁shape	-9.79988
▁国家	-9.80009
▁通り	-9.80034
▁阿	-9.8008
▁初代	-9.80116
▁2007	-9.8017
論	-9.80212
▁南北	-9.80219
▁引	-9.80277
術	-9.80306
▁materials	-9.80378
▁di	-9.80409
▁Suke	-9.80461
▁満	-9.80463
▁室	-9.80505
▁食べ	-9.80598
▁少	-9.80612
衆	-9.80614
▁機	-9.80639
▁ki	-9.80681
▁由来	-9.80913
YAMA	-9.80924
▁pro	-9.80954
▁Yuki	-9.80968
▁承	-9.80975
▁交	-9.80992
kyu	-9.81076
▁ハ	-9.81254
▁理由	-9.81487
▁太政	-9.81497
▁来	-9.8159
▁観音	-9.81619
▁white	-9.81745
▁Fuji	-9.81777
▁First	-9.81807
▁姫	-9.81816
▁older	-9.81829
▁有名	-9.81988
00	-9.82041
▁感	-9.82062
▁process	-9.82115
▁紙	-9.82139
▁cho	-9.82159
▁孫	-9.8216
▁sp	-9.82328
▁Sutra	-9.82333
▁草	-9.82366
▁Left	-9.82389
▁reign	-9.82453
▁建築	-9.82455
▁徳	-9.82461
ting	-9.82478
▁病	-9.82537
▁本願	-9.82604
▁慶	-9.82618
▁total	-9.82686
taro	-9.82738
▁著	-9.82777
▁Ltd	-9.82778
▁does	-9.8283
▁Bo	-9.82878
直	-9.82907
▁follows	-9.83011
▁request	-9.83038
▁譲	-9.83047
▁poem	-9.83161
tomo	-9.83162
▁movement	-9.83178
▁establishment	-9.83183
▁near	-9.83267
も	-9.83305
▁戸	-9.83348
ren	-9.83371
▁祀	-9.83396
で	-9.83419
団	-9.83499
07	-9.83688
▁美術	-9.83698
▁prince	-9.83819
▁本来	-9.83893
西	-9.83908
▁fall	-9.83938
▁latter	-9.8402
▁菩薩	-9.8402
▁梅	-9.84048
▁occurred	-9.84087
▁打	-9.84183
▁design	-9.84204
U	-9.84248
▁銀	-9.84267
▁そう	-9.84311
師	-9.84325
▁Dainagon	-9.84353
▁理	-9.84416
▁raised	-9.84483
▁橋	-9.84565
▁Kane	-9.846
us	-9.84609
▁central	-9.84769
▁D	-9.84873
▁参加	-9.84881
役	-9.84923
▁spring	-9.8495
ven	-9.8501
taking	-9.85036
▁佐	-9.85087
▁空	-9.85091
cha	-9.85096
N	-9.85197
▁mo	-9.85372
▁conducted	-9.8544
▁九州	-9.85488
▁仁	-9.85539
▁愛	-9.85566
▁Mino	-9.8564
▁Ri	-9.85694
▁送	-9.85717
▁士	-9.85756
▁shin	-9.85866
▁雑	-9.85903
58	-9.86032
▁With	-9.86032
▁lords	-9.86045
▁Bun	-9.86073
18	-9.86116
▁和歌	-9.86118
▁practice	-9.86162
raku	-9.86183
id	-9.86205
▁few	-9.86284
▁康	-9.86341
▁certain	-9.86351
▁天文	-9.8642
67	-9.86447
賀	-9.86518
▁御所	-9.86519
▁景	-9.86525
▁Yoshitsune	-9.86586
▁主に	-9.86594
▁command	-9.86626
▁活躍	-9.86688
▁皇后	-9.86691
▁formed	-9.86899
MURA	-9.86903
▁Nihonshoki	-9.86959
▁already	-9.86959
皇	-9.86975
▁修	-9.87021
▁shu	-9.87043
▁officer	-9.87057
▁night	-9.87095
▁不詳	-9.87098
馬	-9.87185
社	-9.87186
▁seven	-9.8725
▁名乗	-9.87251
▁wooden	-9.87315
▁HOSOKAWA	-9.87366
▁上杉	-9.87372
▁最初	-9.87375
▁fifth	-9.87434
▁gods	-9.87441
mai	-9.87447
▁got	-9.87451
▁Fourth	-9.87517
ず	-9.87573
▁君	-9.87601
▁ex	-9.87603
ミ	-9.87606
▁assigned	-9.8764
▁旅	-9.87665
▁節	-9.87676
▁ひと	-9.8769
▁keep	-9.87743
▁乗	-9.87759
▁ほとん	-9.87775
有	-9.87784
▁garden	-9.87844
客	-9.87884
▁light	-9.87887
▁司	-9.879
▁km	-9.87905
▁歌舞伎	-9.87912
金	-9.88013
▁秋	-9.88037
土	-9.88074
▁迎え	-9.88118
M	-9.88141
▁焼	-9.88145
▁worked	-9.8815
▁1868	-9.88217
▁letter	-9.88229
▁墓	-9.883
▁mid	-9.88363
nen	-9.88379
butsu	-9.88383
▁Ritsuryo	-9.88394
▁香	-9.88416
▁サ	-9.88436
▁宿	-9.88444
▁how	-9.88528
様	-9.8854
▁cha	-9.88579
hon	-9.88595
種	-9.88702
▁gold	-9.88787
ze	-9.88836
hiro	-9.88858
ヶ	-9.88938
▁鎮	-9.89015
▁内容	-9.89025
▁平氏	-9.89027
台	-9.8904
▁Whil	-9.89089
he	-9.89126
着	-9.89128
▁大坂	-9.89153
▁孝	-9.89248
30	-9.89304
▁collect	-9.89308
▁帝国	-9.89377
▁production	-9.89384
▁ぬ	-9.89397
▁40	-9.895
▁Mon	-9.895
▁party	-9.89503
▁serve	-9.89504
▁合戦	-9.89509
▁priests	-9.89623
▁gain	-9.89698
emon	-9.89753
▁sister	-9.89777
系	-9.89839
nt	-9.89881
▁Then	-9.89894
装	-9.89914
take	-9.90002
司	-9.90098
▁low	-9.90105
▁都市	-9.90132
tei	-9.9027
雄	-9.90363
▁運	-9.90416
▁money	-9.90476
▁records	-9.90491
▁名称	-9.90536
▁female	-9.90547
▁generations	-9.9056
▁除	-9.90622
▁関白	-9.90627
▁塩	-9.9063
▁generally	-9.90698
▁神道	-9.90741
忠	-9.90747
▁policy	-9.90758
▁如来	-9.9084
▁科	-9.91
▁農	-9.91104
rd	-9.9111
▁refer	-9.91116
▁求め	-9.91181
▁guard	-9.91314
▁province	-9.9132
▁そ	-9.91443
▁属	-9.91447
▁Kamo	-9.91467
▁authority	-9.91544
料	-9.91571
kept	-9.91637
ized	-9.91637
▁saying	-9.91644
▁言葉	-9.91774
▁HOJO	-9.9182
mune	-9.91821
▁abolished	-9.91862
▁date	-9.91882
fi	-9.92049
▁近代	-9.92051
語	-9.92058
11	-9.92062
▁jo	-9.9208
▁Electric	-9.92104
▁ね	-9.9217
▁especially	-9.92179
▁ryo	-9.92203
上げ	-9.92214
▁change	-9.92219
レ	-9.92221
▁つけ	-9.92245
次	-9.92297
mae	-9.92384
▁leading	-9.9243
▁補	-9.92475
matsu	-9.92481
▁林	-9.92537
ずれ	-9.9255
撃	-9.92607
▁弘	-9.92618
toshi	-9.92632
▁Maizuru	-9.9264
対	-9.9266
nosuke	-9.92677
期	-9.92774
▁>	-9.92829
▁遠	-9.9284
▁performance	-9.92841
▁KO	-9.92847
D	-9.92887
▁善	-9.92908
▁KA	-9.92937
▁聖	-9.92945
nai	-9.92948
▁structure	-9.92964
▁district	-9.92977
60	-9.93023
界	-9.93031
▁hard	-9.93046
nyo	-9.93075
▁Grand	-9.93108
▁sold	-9.93116
▁個	-9.93129
▁divided	-9.93181
▁技術	-9.93183
▁Kawachi	-9.93199
08	-9.932
▁開業	-9.93208
▁railway	-9.93252
hide	-9.93272
藩	-9.93325
▁woman	-9.93328
▁administration	-9.93398
画	-9.93401
▁姓	-9.93412
▁河内	-9.93425
▁existed	-9.93472
▁付け	-9.93477
▁皇族	-9.9348
▁much	-9.93512
▁余	-9.93549
▁類	-9.93598
兵	-9.93665
付け	-9.93698
▁gradually	-9.93759
▁Toyo	-9.93803
▁急	-9.93876
▁operated	-9.93882
▁地下	-9.93891
ca	-9.93896
▁現代	-9.93928
▁コ	-9.93933
▁thus	-9.93978
chika	-9.94024
▁Crown	-9.94049
▁ご	-9.94052
▁死後	-9.94062
▁cover	-9.94112
pi	-9.94116
▁完成	-9.94133
▁Saga	-9.94197
▁周辺	-9.94199
▁Year	-9.94343
館	-9.94355
戸	-9.94356
▁客	-9.94371
13	-9.94425
▁イ	-9.94494
▁富	-9.94506
▁平家	-9.94598
▁added	-9.9461
▁八幡	-9.94639
▁目的	-9.94651
68	-9.94731
▁源義	-9.94761
gami	-9.94767
▁stay	-9.94791
▁powerful	-9.94875
▁Iwa	-9.94905
▁印	-9.95009
▁volume	-9.95068
▁交通	-9.95082
典	-9.95086
上皇	-9.95115
▁further	-9.95147
▁serving	-9.95147
▁挙げ	-9.95147
続	-9.9518
▁inherit	-9.95209
▁Moro	-9.95244
林	-9.95255
▁literature	-9.95295
MA	-9.95377
ning	-9.95406
▁設立	-9.95442
▁Katsu	-9.95574
fuku	-9.95598
▁事業	-9.95632
▁Myo	-9.95666
▁機関	-9.95738
▁始ま	-9.95756
▁resign	-9.9579
▁武将	-9.95818
66	-9.95842
▁Be	-9.95975
▁Koku	-9.95978
▁route	-9.96002
▁Even	-9.96056
20	-9.96086
▁color	-9.96108
葉	-9.96193
ish	-9.96244
▁inside	-9.96252
▁利	-9.96316
▁古代	-9.96366
▁foreign	-9.96389
▁破	-9.96472
影	-9.9648
▁studi	-9.96494
▁Takeda	-9.96587
▁玉	-9.9659
87	-9.96615
▁director	-9.9663
▁list	-9.96632
kiyo	-9.96655
saki	-9.96757
▁参議	-9.96787
ir	-9.96884
▁ゆ	-9.96986
▁Nan	-9.97014
▁Shogunate	-9.97015
50	-9.97025
toki	-9.97094
▁寛	-9.97157
▁舞	-9.97179
▁Her	-9.97224
▁松平	-9.97305
▁Sanjo	-9.9732
▁場所	-9.9732
▁玄	-9.97367
▁読	-9.97381
▁ぎ	-9.97423
▁続け	-9.97431
▁建立	-9.97471
籍	-9.97502
pu	-9.97506
▁directly	-9.97514
▁per	-9.97589
▁Bureau	-9.97604
▁嘉	-9.97624
▁connect	-9.97698
▁Monogatari	-9.97755
▁丹波	-9.97755
kin	-9.97942
▁発展	-9.97983
▁pa	-9.98017
▁タ	-9.98069
承	-9.98076
▁勅	-9.98101
備	-9.9812
右衛門	-9.98133
▁状	-9.98152
▁regions	-9.98165
▁激	-9.98206
▁we	-9.98208
▁鏡	-9.98234
型	-9.98329
▁時間	-9.98419
▁Restoration	-9.98513
▁living	-9.98514
火	-9.98566
40	-9.98587
▁legend	-9.9859
▁posthumous	-9.98665
shiro	-9.98713
ツ	-9.98713
65	-9.9873
▁経済	-9.98752
ール	-9.98757
▁Land	-9.98824
▁wa	-9.98837
elves	-9.98899
▁幕	-9.98917
▁年代	-9.9896
▁向か	-9.98981
相	-9.98998
▁並	-9.99006
▁get	-9.99024
▁Ge	-9.99125
▁運転	-9.99125
▁General	-9.99127
▁順	-9.99207
▁Jun	-9.99213
56	-9.99323
▁property	-9.99355
▁development	-9.99361
▁lines	-9.99373
▁Kore	-9.99407
▁whe	-9.99413
74	-9.99451
▁successor	-9.99452
▁ground	-9.99469
▁offer	-9.99508
01	-9.99576
▁road	-9.9958
G	-9.99695
▁Otsu	-9.99902
入れ	-9.99935
▁立て	-9.99961
▁会社	-9.99992
om	-10.0004
kami	-10.0007
▁purpose	-10.0009
04	-10.002
▁originat	-10.0024
▁地位	-10.0029
車	-10.0031
事実	-10.0032
▁elde	-10.0035
com	-10.0035
拠	-10.0035
▁heir	-10.0035
▁manor	-10.0036
▁資料	-10.0036
▁my	-10.0037
zoku	-10.0038
例	-10.0041
▁foot	-10.0043
▁現存	-10.0052
▁流れ	-10.0056
▁active	-10.0059
▁hereditar	-10.0067
▁higher	-10.0074
▁selected	-10.0075
▁State	-10.0081
▁鳥	-10.0082
▁And	-10.0083
em	-10.0089
像	-10.0096
▁おお	-10.0098
▁建設	-10.0098
▁神宮	-10.0104
▁car	-10.0106
▁宣	-10.0108
gai	-10.011
Genji	-10.0116
▁respect	-10.0121
▁Kabuki	-10.0122
べ	-10.0128
側	-10.0129
▁助	-10.0133
▁幼	-10.0141
▁give	-10.0144
▁Nijo	-10.0148
▁よく	-10.015
▁ニ	-10.015
9	-10.0167
天	-10.0171
▁dispatch	-10.0176
▁次男	-10.0178
プ	-10.0191
zane	-10.0193
▁limited	-10.0199
▁usually	-10.0202
▁隆	-10.0204
▁Nin	-10.0209
▁lineage	-10.0212
▁involved	-10.0213
▁estate	-10.0215
▁刀	-10.0217
▁nation	-10.0218
▁trade	-10.0231
▁派遣	-10.0231
uchi	-10.0236
▁approximate	-10.0247
pp	-10.0249
▁descendants	-10.0252
▁限	-10.0252
▁洋	-10.0254
▁形式	-10.0257
koji	-10.0259
▁ta	-10.0261
91	-10.0261
17	-10.0268
▁bu	-10.0269
▁Captain	-10.0279
ph	-10.0281
▁2005	-10.0281
▁Hongan	-10.0282
ure	-10.0285
▁II	-10.0286
▁最後	-10.0288
▁運動	-10.0295
級	-10.0299
▁Act	-10.0307
57	-10.0324
ニ	-10.0325
▁文書	-10.0335
員	-10.0336
▁通称	-10.0349
▁逆	-10.0349
▁郷	-10.0349
郷	-10.0355
▁発生	-10.0361
ド	-10.037
53	-10.0372
▁formal	-10.0374
▁Bosatsu	-10.0375
▁官位	-10.0381
▁Department	-10.0399
▁Company	-10.0407
ach	-10.0407
▁招	-10.0408
▁cm	-10.0411
▁段	-10.0413
K	-10.0416
z	-10.0419
▁difficult	-10.0421
▁sauce	-10.0434
▁Tendai	-10.0436
▁govern	-10.044
▁顕	-10.0441
▁research	-10.0445
▁outside	-10.0457
▁Ari	-10.0459
解	-10.0469
▁secret	-10.047
▁生活	-10.0472
▁commonly	-10.0474
▁fell	-10.0479
▁豪	-10.048
▁conflict	-10.0484
▁国宝	-10.0488
ship	-10.0493
19	-10.0498
ケ	-10.0499
aught	-10.0503
gata	-10.0512
スト	-10.0514
▁If	-10.0521
▁防	-10.0521
▁跡	-10.0521
智	-10.0522
▁except	-10.0525
SU	-10.0528
党	-10.0532
詞	-10.0535
ions	-10.0536
▁複	-10.0536
▁Tango	-10.0537
▁黄	-10.0538
述	-10.0539
▁方面	-10.0542
▁big	-10.0544
▁路線	-10.0545
▁ぜ	-10.0549
ズ	-10.055
▁奥	-10.0551
▁倭	-10.0556
05	-10.0561
▁及	-10.0562
▁below	-10.0563
▁河	-10.0566
▁業	-10.0567
▁規模	-10.0569
saka	-10.0571
▁中世	-10.0573
line	-10.0574
▁戻	-10.0577
▁Important	-10.0577
▁destroy	-10.0577
69	-10.0579
▁reform	-10.0586
▁itself	-10.0597
▁Retired	-10.0601
▁depend	-10.0601
▁establish	-10.0604
dono	-10.0604
▁K	-10.0604
▁配	-10.0605
▁protect	-10.0606
▁pre	-10.0607
▁Mutsu	-10.0608
▁World	-10.061
▁Collection	-10.061
派	-10.061
▁dai	-10.0615
▁以	-10.063
▁More	-10.063
ig	-10.0631
▁oldest	-10.0632
▁なら	-10.0634
▁regent	-10.0634
RI	-10.0637
ishi	-10.0637
▁征	-10.0639
極	-10.064
▁厳	-10.0641
▁belonged	-10.065
▁i	-10.0654
宝	-10.0657
▁article	-10.0657
▁思想	-10.0668
hiko	-10.0669
具	-10.0671
舎	-10.0678
▁帝	-10.0681
▁students	-10.0688
vo	-10.0692
▁評価	-10.0692
▁Oto	-10.0694
▁太	-10.0697
tion	-10.0698
府	-10.0706
▁日記	-10.0715
▁最も	-10.0718
kura	-10.0721
▁土地	-10.0723
切	-10.0727
▁法華	-10.0727
▁いわ	-10.0729
▁卿	-10.0729
▁level	-10.0732
▁商	-10.0738
▁放	-10.0738
02	-10.0739
▁楽	-10.074
▁泰	-10.074
▁Tanba	-10.0742
▁roof	-10.0742
▁英	-10.0746
▁築	-10.0748
▁organization	-10.075
▁perform	-10.075
▁改め	-10.0755
▁矢	-10.0756
ギ	-10.0758
妻	-10.0759
札	-10.0759
▁どう	-10.0764
▁出来	-10.0765
▁群	-10.0767
▁social	-10.0767
▁award	-10.0772
仏	-10.0773
▁treat	-10.0778
▁event	-10.078
ゆる	-10.0787
51	-10.0791
▁裏	-10.0792
▁Town	-10.0793
尾	-10.0795
▁本尊	-10.0795
▁Hisa	-10.0795
▁Goshirakawa	-10.08
▁薩摩	-10.08
▁Musashi	-10.08
▁短	-10.0808
▁suggest	-10.0809
▁silver	-10.0809
▁列	-10.0811
▁礼	-10.0816
12	-10.0817
▁help	-10.0817
▁vice	-10.0818
▁体制	-10.0818
eki	-10.082
越	-10.0827
▁Un	-10.0828
▁High	-10.0831
ward	-10.0837
▁provided	-10.0845
▁辞	-10.0845
64	-10.0847
職	-10.086
隆	-10.0864
94	-10.0872
▁団	-10.088
よ	-10.0881
▁full	-10.0885
▁film	-10.0886
▁2008	-10.0887
77	-10.0889
ぐ	-10.089
▁MATSUDAIRA	-10.0893
▁計画	-10.0893
▁posts	-10.0894
▁決	-10.0895
▁ni	-10.0901
▁特徴	-10.0901
▁寛永	-10.0902
▁なか	-10.0904
▁need	-10.0908
▁succession	-10.0911
per	-10.0912
▁基本	-10.0913
きな	-10.0914
▁人々	-10.0916
▁Nari	-10.0919
▁field	-10.0919
way	-10.0925
▁Village	-10.0927
▁禅	-10.0928
▁弟子	-10.0929
tr	-10.0931
▁建て	-10.0932
▁Amida	-10.0935
▁龍	-10.0938
▁wh	-10.0941
ors	-10.0942
▁statues	-10.0943
河	-10.0943
▁sen	-10.0944
▁Mei	-10.0952
当	-10.0953
70	-10.0953
オ	-10.0954
紙	-10.0954
囲	-10.0956
▁volumes	-10.0957
▁国立	-10.0958
▁idea	-10.0959
32	-10.096
▁Army	-10.096
▁調査	-10.0961
▁forced	-10.0962
米	-10.0964
▁Chunagon	-10.0969
▁lot	-10.0969
▁wide	-10.0974
▁hot	-10.0976
▁鬼	-10.098
夫	-10.098
▁Kojiki	-10.0989
▁密	-10.099
▁家人	-10.0993
▁敵	-10.0997
▁当た	-10.1
▁pass	-10.1001
▁正室	-10.1001
▁Kawa	-10.101
by	-10.1011
▁thems	-10.1017
▁兄弟	-10.1017
▁大津	-10.1021
▁Me	-10.1021
▁天保	-10.1033
▁Hojo	-10.1039
▁Gyo	-10.1044
▁施設	-10.1046
▁程度	-10.1046
setsu	-10.1049
tra	-10.105
▁大夫	-10.1056
71	-10.1059
▁資	-10.106
▁Its	-10.106
▁叙	-10.106
▁美濃	-10.1063
▁almo	-10.1071
▁elder	-10.1073
▁Ryu	-10.1079
ul	-10.1087
彦	-10.1087
▁kuni	-10.1089
▁キ	-10.1091
▁too	-10.1093
▁buildings	-10.1096
▁幸	-10.1097
▁length	-10.1097
24	-10.1097
▁監督	-10.1098
▁Ne	-10.11
▁暦	-10.1101
印	-10.1105
▁horse	-10.1108
▁worship	-10.111
naka	-10.1111
maki	-10.1113
▁fight	-10.1115
▁Law	-10.1116
▁寄	-10.1118
▁te	-10.1118
▁勘	-10.1118
リー	-10.112
▁Kage	-10.1121
▁60	-10.1121
望	-10.1124
ang	-10.1125
▁現れ	-10.1127
▁本線	-10.1131
▁紫	-10.1131
▁産	-10.1131
▁ヶ	-10.114
▁whole	-10.1141
▁hon	-10.1148
▁cars	-10.1149
▁standing	-10.1151
▁never	-10.1158
▁States	-10.1161
▁face	-10.1173
南	-10.118
▁攻め	-10.1184
▁筆	-10.1184
▁引き	-10.1186
▁brothers	-10.1192
▁document	-10.1196
▁Shiga	-10.1199
穂	-10.1201
▁paintings	-10.1202
▁persons	-10.1204
▁handed	-10.121
▁東山	-10.1211
kko	-10.1213
TSU	-10.1218
▁池	-10.1219
shaped	-10.1221
▁表記	-10.1222
▁sub	-10.1224
82	-10.1224
▁Household	-10.1228
▁past	-10.1234
▁becom	-10.1236
23	-10.1236
▁dynasty	-10.1236
退	-10.1237
▁sense	-10.124
▁appears	-10.1241
▁series	-10.1245
▁動	-10.1245
16	-10.1251
材	-10.1251
▁Asuka	-10.1254
▁布	-10.1255
▁営	-10.1262
▁northern	-10.1262
▁tree	-10.1267
▁Toku	-10.127
▁次第	-10.1271
▁street	-10.1275
▁味	-10.1277
▁board	-10.1279
▁shugo	-10.1282
▁甲	-10.1287
▁Island	-10.1289
▁Shingon	-10.1291
▁比	-10.1296
松	-10.13
▁天台	-10.131
▁Kansai	-10.1312
▁Sui	-10.1317
あ	-10.1319
▁leader	-10.1322
自	-10.1324
従五位	-10.1328
▁though	-10.1329
▁clans	-10.1334
▁相当	-10.1334
97	-10.1338
お	-10.1346
▁sixth	-10.1348
▁Nichiren	-10.1351
▁延暦	-10.1351
▁ト	-10.136
▁内閣	-10.1361
84	-10.1362
▁Oda	-10.1362
▁tsu	-10.1364
▁writing	-10.1364
▁oppos	-10.1376
▁course	-10.1377
omi	-10.1378
mochi	-10.1379
78	-10.1384
▁正月	-10.1384
▁Kiyomori	-10.1388
▁戦後	-10.1388
佐	-10.1389
zumi	-10.1392
▁堀	-10.1392
▁Inner	-10.1404
▁状態	-10.1404
達	-10.1405
▁真言	-10.1405
▁介	-10.1406
兵衛	-10.1408
▁型	-10.1415
▁eastern	-10.1415
▁human	-10.1421
▁positions	-10.1423
▁open	-10.1425
隊	-10.1432
▁via	-10.1439
61	-10.1444
食	-10.1444
▁less	-10.1449
ura	-10.145
使	-10.1453
▁発行	-10.1454
saku	-10.1455
▁male	-10.1457
▁Owari	-10.1458
根	-10.1462
▁pieces	-10.1466
tan	-10.1469
雲	-10.147
▁中村	-10.147
▁cut	-10.1472
▁East	-10.1475
▁Sha	-10.1475
R	-10.1481
ling	-10.1487
BE	-10.1493
古	-10.1499
▁名前	-10.1504
kage	-10.1507
性	-10.1507
ious	-10.1508
▁軍事	-10.151
▁Affairs	-10.1511
▁me	-10.1512
▁遊	-10.1515
45	-10.1516
▁大将	-10.1516
▁Tame	-10.1519
▁低	-10.1524
▁仕	-10.1528
求	-10.1529
▁俊	-10.1531
▁山城	-10.1532
▁ク	-10.1534
H	-10.1534
GA	-10.1537
▁史料	-10.1539
zaemon	-10.1539
▁難	-10.154
▁寿	-10.1544
▁Association	-10.1547
▁priesthood	-10.1548
▁主張	-10.1548
花	-10.1553
知	-10.1558
▁training	-10.1566
▁Art	-10.1567
▁臨	-10.1571
全	-10.1572
▁対象	-10.1575
▁travel	-10.1576
▁details	-10.1578
端	-10.1582
▁量	-10.1582
船	-10.1583
▁Haru	-10.1587
▁前期	-10.1596
景	-10.1598
▁h	-10.1599
▁設け	-10.1601
▁伝承	-10.1603
side	-10.1605
76	-10.1606
▁阿弥陀	-10.1619
美	-10.1619
▁表現	-10.1619
▁贈	-10.1619
▁MI	-10.1621
47	-10.1622
▁いえ	-10.1624
▁Yodo	-10.1624
▁requir	-10.1625
led	-10.1629
28	-10.163
▁states	-10.1633
▁spirit	-10.1636
06	-10.1637
85	-10.1638
▁多数	-10.164
▁deep	-10.165
▁But	-10.165
▁注	-10.1654
維新	-10.1655
▁エ	-10.1658
▁柳	-10.166
rew	-10.1661
▁principal	-10.1665
▁coins	-10.1666
▁近年	-10.1671
▁陸軍	-10.1674
▁完	-10.1677
hashi	-10.1686
属	-10.1691
▁フ	-10.1697
▁製	-10.1705
21	-10.1706
red	-10.1709
oki	-10.1709
▁Many	-10.1714
ol	-10.1714
ut	-10.1719
▁将	-10.1725
88	-10.1728
▁participate	-10.1729
09	-10.1729
ック	-10.1729
▁river	-10.1731
護	-10.1732
▁Middle	-10.1738
,	-10.1741
▁Kata	-10.1746
藤	-10.1753
三	-10.1753
▁events	-10.1757
▁武蔵	-10.1759
▁党	-10.1761
▁政策	-10.1766
25	-10.1769
▁ran	-10.1773
▁services	-10.1775
▁湯	-10.1775
▁飛鳥	-10.1775
所領	-10.1776
基づ	-10.178
▁わた	-10.1781
jingu	-10.1788
▁Shimo	-10.1792
▁lunar	-10.1793
▁enemy	-10.1796
▁Three	-10.1802
▁任命	-10.1805
▁精	-10.1812
ブ	-10.1815
99	-10.1817
▁problem	-10.1821
▁square	-10.1821
▁attempt	-10.183
▁普通	-10.1831
▁han	-10.1833
▁巡	-10.1846
▁su	-10.1853
36	-10.1853
▁一条	-10.1856
▁Education	-10.1858
jima	-10.1863
▁composed	-10.1867
lor	-10.1868
rs	-10.1869
62	-10.187
らか	-10.1871
GI	-10.1873
▁Prefectural	-10.1877
▁待	-10.1877
▁Ba	-10.1884
gon	-10.1886
▁Sumi	-10.1891
▁hold	-10.1891
▁Shugo	-10.1895
▁might	-10.1896
品	-10.1898
81	-10.1899
以来	-10.19
▁direction	-10.1904
▁Ancient	-10.1905
▁activities	-10.1905
盤	-10.1905
ia	-10.1912
▁poet	-10.192
▁widely	-10.1922
▁編纂	-10.1923
▁Nyorai	-10.1924
59	-10.1925
▁value	-10.1926
▁文学	-10.193
▁弓	-10.1932
▁Te	-10.1933
▁accepted	-10.1944
▁clear	-10.1945
▁Takauji	-10.1946
▁far	-10.1955
覚	-10.1957
KA	-10.1958
▁conferred	-10.1958
頃	-10.1959
▁禁	-10.1959
儀	-10.1959
断	-10.196
満	-10.1963
つて	-10.1965
KURA	-10.1977
▁抄	-10.1979
▁保存	-10.198
possible	-10.1983
CHI	-10.1985
▁関西	-10.1991
▁清盛	-10.1993
39	-10.1997
land	-10.2
nan	-10.2005
▁オ	-10.2007
▁senior	-10.2008
▁聞	-10.2011
▁同時	-10.2013
乱	-10.2025
▁決定	-10.2029
▁Among	-10.2036
▁奉	-10.2036
ple	-10.205
▁suke	-10.2057
園	-10.2059
▁fields	-10.2064
▁構成	-10.2065
▁文字	-10.2068
▁登	-10.2081
▁天平	-10.2083
▁sweet	-10.2084
観	-10.2084
ical	-10.2091
▁身分	-10.2096
態	-10.2098
▁義経	-10.2099
Y	-10.2102
▁Fuku	-10.2109
▁格	-10.2112
▁誕生	-10.2112
▁se	-10.2115
寿	-10.2115
73	-10.2125
▁depict	-10.2131
霊	-10.2133
▁disciple	-10.2135
▁国司	-10.2135
▁ミ	-10.2136
▁compar	-10.2151
▁KU	-10.2152
▁幕末	-10.216
▁TA	-10.2165
89	-10.2165
▁TO	-10.2168
ster	-10.2175
▁尾張	-10.2179
15	-10.2184
▁describe	-10.2184
▁wood	-10.2185
86	-10.2188
▁Da	-10.219
域	-10.2192
03	-10.2193
▁grave	-10.2198
科	-10.2205
▁塔	-10.2208
▁society	-10.2209
▁Choshu	-10.2214
▁stations	-10.2218
▁銀行	-10.2221
坂	-10.2221
43	-10.2225
▁見え	-10.2233
▁Article	-10.2237
▁recogniz	-10.2237
▁負	-10.2241
喜	-10.2241
▁theories	-10.2247
▁宗教	-10.2249
▁provisional	-10.225
▁Todai	-10.2251
33	-10.2254
▁管理	-10.2257
▁shoen	-10.2265
nao	-10.2267
▁season	-10.2269
0	-10.227
▁V	-10.2272
▁swords	-10.2274
▁寮	-10.2274
▁engag	-10.2276
35	-10.2276
▁1869	-10.228
▁古事	-10.2282
▁code	-10.2283
▁根	-10.2284
▁0	-10.2285
別	-10.2286
55	-10.2286
テ	-10.2292
跡	-10.2295
▁慶応	-10.2296
42	-10.2296
▁坊	-10.2297
▁元号	-10.2303
48	-10.2305
▁居	-10.2313
▁warriors	-10.2317
34	-10.2318
▁here	-10.2323
▁状況	-10.2324
▁deities	-10.2325
▁賞	-10.2327
ring	-10.2328
▁Kyu	-10.234
▁宇	-10.2345
▁自由	-10.2345
▁arts	-10.2349
▁Fukuchiyama	-10.2354
▁熊	-10.2355
▁売	-10.236
博物	-10.2362
▁2000	-10.2362
丹	-10.2363
ご	-10.2366
音	-10.237
▁coming	-10.2384
cur	-10.2389
広	-10.239
▁na	-10.2391
▁天武	-10.2395
▁道路	-10.2397
▁seventh	-10.2399
居	-10.2399
延	-10.2401
▁kai	-10.2404
歌	-10.2404
▁開発	-10.2405
在	-10.2406
▁片	-10.2406
刀	-10.241
▁独立	-10.2414
▁groups	-10.2416
▁going	-10.2418
江	-10.242
▁毛利	-10.2422
▁education	-10.2425
白	-10.2429
zuka	-10.2432
▁highly	-10.2432
▁prevent	-10.2432
▁校	-10.2434
▁actually	-10.2438
▁メートル	-10.2438
▁things	-10.2441
▁1871	-10.2446
▁Chika	-10.2448
モ	-10.2459
▁administrative	-10.2462
▁mikoto	-10.2463
▁Den	-10.2464
▁200	-10.2466
▁subject	-10.2468
陣	-10.247
hisa	-10.2472
▁儀式	-10.2472
▁Council	-10.2474
フ	-10.2477
的	-10.2479
75	-10.2481
▁断	-10.2482
▁非	-10.249
工	-10.2491
▁black	-10.2491
▁silk	-10.2491
留	-10.2494
▁particular	-10.2505
63	-10.2505
▁夏	-10.2506
都	-10.2507
▁方法	-10.251
▁little	-10.2511
機	-10.2511
▁yen	-10.2513
▁start	-10.2515
▁里	-10.2516
▁Tosa	-10.2516
▁太子	-10.2517
▁scene	-10.2523
▁inter	-10.2524
▁towns	-10.2526
▁deriv	-10.2531
▁直接	-10.2531
▁Yamashiro	-10.2532
▁尊氏	-10.2532
▁変化	-10.2533
基	-10.2533
▁牛	-10.2533
▁must	-10.2534
▁陰陽	-10.2541
▁legal	-10.2544
▁パ	-10.2547
les	-10.2552
▁ホーム	-10.2557
足	-10.2559
▁live	-10.2564
▁parts	-10.2565
14	-10.2565
▁Gu	-10.2567
▁lead	-10.2567
am	-10.2568
92	-10.2568
▁Ashikaga	-10.2571
▁模	-10.2575
▁かつ	-10.2576
▁華	-10.2577
▁麻呂	-10.2577
▁pray	-10.2578
▁整備	-10.2581
▁Daigo	-10.2589
倒	-10.2591
▁sacred	-10.2591
▁Sangi	-10.2595
類	-10.2601
▁ritsuryo	-10.2601
▁傾	-10.2602
▁建物	-10.2605
▁represent	-10.2605
▁枚	-10.261
▁bamboo	-10.2611
93	-10.2611
WA	-10.2614
▁envoy	-10.2619
▁仙	-10.2623
▁園	-10.2629
郎	-10.2634
lt	-10.2636
27	-10.2643
▁Shun	-10.2645
▁しか	-10.2646
▁liter	-10.2651
▁Jugoinoge	-10.2652
▁副	-10.2654
▁ranks	-10.2654
▁過	-10.2655
▁桂	-10.2659
導	-10.266
嗣	-10.2661
zai	-10.2665
if	-10.2667
▁大内	-10.2668
con	-10.2668
▁manag	-10.2669
▁successive	-10.2672
▁Showa	-10.2674
▁庁	-10.2676
▁行事	-10.2682
柄	-10.2686
▁国際	-10.2692
麻呂	-10.2696
▁ro	-10.2696
ami	-10.2699
goro	-10.27
▁wear	-10.2702
視	-10.2704
略	-10.2706
▁栄	-10.2706
送	-10.2716
▁ただ	-10.2717
54	-10.2717
▁text	-10.272
res	-10.2721
kane	-10.2722
▁包	-10.2723
三郎	-10.2728
▁Ban	-10.2731
▁Con	-10.2731
▁積	-10.2731
▁じょう	-10.2737
che	-10.2737
▁Cha	-10.2737
▁Upp	-10.2737
P	-10.2738
▁running	-10.2743
▁information	-10.2743
▁観光	-10.2745
▁賜	-10.2751
▁維	-10.2756
▁concern	-10.2757
▁legitimate	-10.2763
▁覚	-10.2764
▁Property	-10.2773
▁滋賀	-10.2773
and	-10.2781
41	-10.2783
侶	-10.2783
▁actual	-10.2787
▁自然	-10.2788
▁tomb	-10.2793
▁条約	-10.2794
庁	-10.2798
▁ku	-10.2802
輪	-10.2804
▁高野	-10.2804
▁recorded	-10.2805
▁判	-10.2805
98	-10.2806
lar	-10.2808
▁ウ	-10.2811
▁述べ	-10.2813
メ	-10.282
▁Oki	-10.2821
▁technique	-10.2824
▁攻撃	-10.2824
▁register	-10.2824
▁荒	-10.2825
▁domains	-10.2827
▁learned	-10.2833
▁組織	-10.2834
95	-10.2835
▁占	-10.2836
▁attend	-10.2844
▁皇女	-10.2846
▁NAKAMURA	-10.2855
▁舞台	-10.2855
置	-10.2857
▁dishes	-10.2859
▁ほう	-10.2864
▁陸奥	-10.2865
▁properties	-10.2865
▁改革	-10.2865
yaki	-10.2865
du	-10.2868
▁Zo	-10.2873
▁願	-10.2878
姓	-10.2879
80	-10.2885
▁assistant	-10.2886
▁opinion	-10.2886
▁toward	-10.2891
▁terms	-10.2894
▁Mikoto	-10.2898
▁trees	-10.2901
mm	-10.2901
▁湖	-10.2909
▁智	-10.2912
▁呼称	-10.2914
姫	-10.2915
▁つつ	-10.2916
▁老	-10.2916
▁products	-10.2916
▁specific	-10.2919
▁Higashiyama	-10.292
▁わか	-10.2925
▁aim	-10.2926
ration	-10.2927
清	-10.2929
▁歌人	-10.2929
44	-10.2929
ide	-10.2934
26	-10.2935
席	-10.2936
▁ei	-10.2944
辺	-10.2946
pon	-10.2946
▁Z	-10.2946
▁付近	-10.2948
▁custom	-10.295
▁Izumo	-10.295
価	-10.2957
▁確立	-10.2958
氏	-10.2961
▁natural	-10.2962
そ	-10.2963
▁Ke	-10.2963
慶	-10.2967
▁荘	-10.2978
▁soy	-10.2979
▁Other	-10.2981
▁新聞	-10.2981
ified	-10.2984
▁主義	-10.2985
▁割	-10.2986
▁MORI	-10.2988
▁author	-10.2989
▁さん	-10.299
▁木造	-10.2991
▁友	-10.2991
▁Waka	-10.2995
52	-10.2999
L	-10.2999
▁Kintetsu	-10.3
▁東西	-10.3003
▁Shinshu	-10.3009
衣	-10.301
▁諸国	-10.3017
▁飛	-10.3027
▁免	-10.303
▁obtain	-10.3031
▁ruling	-10.3031
▁bo	-10.3031
▁妙	-10.3033
▁houses	-10.304
▁江	-10.3041
▁newly	-10.3044
▁sound	-10.3052
▁日蓮	-10.3055
▁養	-10.3055
▁controll	-10.3061
72	-10.3064
▁sun	-10.3065
▁弁	-10.3068
▁yu	-10.3073
▁近畿	-10.3073
▁運行	-10.3076
▁invit	-10.3076
▁bow	-10.3082
情	-10.3083
▁territories	-10.3083
gumi	-10.3087
▁effort	-10.3094
▁Kon	-10.3095
▁personal	-10.3095
▁メ	-10.3096
▁actor	-10.3099
▁Ex	-10.3102
▁dedicat	-10.3102
▁記念	-10.3106
22	-10.3126
▁寺社	-10.3127
46	-10.3133
▁empress	-10.3136
約	-10.3138
OKA	-10.314
▁販売	-10.3146
▁dead	-10.3146
▁memorial	-10.3146
▁medieval	-10.3147
▁非常	-10.3147
▁縁	-10.3147
▁講	-10.3148
▁上野	-10.3151
▁effect	-10.3156
▁Kanpaku	-10.3157
▁ancestor	-10.3157
▁monks	-10.3158
▁崇	-10.3165
▁TAKA	-10.3165
ート	-10.3176
同じく	-10.3185
val	-10.3186
▁minutes	-10.3189
▁300	-10.3192
▁Tan	-10.3193
▁indicate	-10.3197
▁皇太子	-10.3199
▁経由	-10.32
巻	-10.3203
局	-10.3215
▁冠	-10.3216
▁financial	-10.3221
▁ticket	-10.3221
▁街道	-10.3222
▁編成	-10.3222
▁broke	-10.3224
90	-10.323
遇	-10.3231
hai	-10.324
▁検	-10.324
易	-10.3241
▁Echizen	-10.3242
ネ	-10.3243
香	-10.3247
▁器	-10.3247
ben	-10.3252
継	-10.3255
▁material	-10.3257
op	-10.3259
▁吉田	-10.3262
▁carry	-10.3265
▁descendant	-10.3268
▁Shinsengumi	-10.3274
圧	-10.3279
▁天下	-10.3281
▁折	-10.3283
▁ごと	-10.3286
▁upper	-10.3288
▁編	-10.329
round	-10.3291
▁博	-10.3291
▁陣	-10.3292
▁ju	-10.3292
▁九条	-10.3296
▁生産	-10.33
▁くる	-10.3302
抗	-10.3303
▁Bank	-10.3308
fe	-10.3312
グ	-10.3315
▁types	-10.3317
興	-10.332
▁臣	-10.3322
▁古く	-10.3326
▁stories	-10.3328
▁N	-10.3331
▁Kazu	-10.3333
▁representative	-10.3339
▁tradition	-10.3344
▁noodles	-10.3344
住	-10.3346
▁板	-10.3348
▁存	-10.3351
▁officers	-10.3357
▁Government	-10.336
▁層	-10.3361
▁近世	-10.3362
cal	-10.3365
▁版	-10.3367
▁meeting	-10.3367
▁appear	-10.3375
友	-10.3379
賢	-10.3379
▁currently	-10.3382
▁Chronicles	-10.3383
▁Shiki	-10.3387
筆	-10.3392
▁復	-10.3402
貨	-10.3403
▁今日	-10.3406
▁2004	-10.3406
▁canno	-10.3414
▁芸	-10.3419
29	-10.3422
如	-10.3424
▁single	-10.3425
▁改正	-10.3426
que	-10.3427
ton	-10.343
令	-10.343
▁射	-10.3433
▁sign	-10.3433
▁green	-10.3436
▁pagoda	-10.3436
▁Cloister	-10.3436
▁diary	-10.3438
▁初めて	-10.3438
▁surrender	-10.3447
▁Major	-10.3447
▁制定	-10.3455
▁interest	-10.3459
▁ritual	-10.3464
▁アメリカ	-10.3469
▁け	-10.3473
西郷	-10.3475
▁綱	-10.3476
▁三十	-10.3477
▁冬	-10.3478
御門	-10.3484
▁落	-10.3489
▁Hokkaido	-10.3491
▁surrounding	-10.3491
▁enjoy	-10.3491
▁統	-10.3506
▁視	-10.3507
wara	-10.3508
▁individual	-10.3512
▁twenty	-10.3512
▁起	-10.3514
▁工	-10.3519
▁活	-10.3523
教	-10.3525
▁略	-10.3528
▁銭	-10.3529
▁claim	-10.3534
▁33	-10.3537
▁KI	-10.3538
▁森	-10.3539
▁picture	-10.3541
▁Yoshino	-10.3544
▁available	-10.3545
▁suicide	-10.3545
▁やす	-10.3549
▁供	-10.355
▁中将	-10.355
▁形成	-10.3551
▁蔵人	-10.3552
▁equivalent	-10.3556
▁unique	-10.3556
▁500	-10.3558
▁Heike	-10.3561
岸	-10.3566
▁故	-10.3567
▁want	-10.3569
康	-10.3572
▁deal	-10.3574
春	-10.3578
▁Settsu	-10.3579
▁温泉	-10.3579
武	-10.3581
秀	-10.3582
▁考	-10.3584
▁集め	-10.3584
▁look	-10.3589
▁Center	-10.359
31	-10.3591
▁飯	-10.3591
▁rebellion	-10.3591
▁料	-10.3592
▁L	-10.3595
▁功	-10.3598
▁function	-10.3601
▁ken	-10.3603
▁seal	-10.3604
▁ca	-10.3605
▁けれ	-10.3606
▁ga	-10.361
49	-10.3611
案	-10.3614
▁抜	-10.3616
▁report	-10.3616
▁南朝	-10.3618
条	-10.3621
▁雅	-10.3627
角	-10.363
▁distinguished	-10.3632
▁一時	-10.3641
▁細	-10.3641
▁thousand	-10.3645
▁行な	-10.3647
JI	-10.3648
▁la	-10.365
ット	-10.365
▁しょう	-10.3652
▁police	-10.3656
▁regular	-10.3656
▁childhood	-10.3657
▁夫	-10.3657
▁屋敷	-10.366
▁漢	-10.366
tor	-10.3664
83	-10.3667
▁規定	-10.3668
▁lawful	-10.3669
▁cloth	-10.3672
▁husband	-10.3678
▁容	-10.3685
▁Toba	-10.3685
▁King	-10.3686
▁桃山	-10.3691
▁行政	-10.3691
▁standard	-10.3692
light	-10.3693
▁皇位	-10.3693
太	-10.3694
▁東大	-10.3695
▁Tei	-10.3701
▁記載	-10.3702
▁Mitsuhide	-10.3702
▁意見	-10.3703
▁Chief	-10.3705
▁吉野	-10.3705
衡	-10.3712
▁創建	-10.3712
▁尼	-10.3713
▁雲	-10.3714
ition	-10.3722
▁電車	-10.3724
96	-10.3725
▁bar	-10.3725
玉	-10.3739
▁entrance	-10.3746
▁dish	-10.3746
▁size	-10.3746
▁St	-10.3748
ction	-10.3751
▁taste	-10.3751
次郎	-10.3757
▁Minami	-10.3758
▁port	-10.3759
▁warrior	-10.3766
尊	-10.377
bei	-10.3772
がて	-10.3772
草	-10.3774
tsuki	-10.3775
▁散	-10.3776
▁真宗	-10.3782
▁chi	-10.3782
▁Gun	-10.3784
daijin	-10.3785
里	-10.3785
▁By	-10.3801
泉	-10.3806
▁Daijo	-10.3807
up	-10.3808
▁Tsuna	-10.3808
▁界	-10.3812
験	-10.3813
▁respectively	-10.3813
▁結婚	-10.3814
▁銅	-10.3814
▁hair	-10.3816
▁公園	-10.3816
▁plann	-10.3817
税	-10.382
▁anti	-10.3823
▁Tumulus	-10.3824
律	-10.3833
▁護	-10.3833
▁southern	-10.3836
▁斎	-10.3836
▁told	-10.3837
介	-10.3843
▁素	-10.3844
wi	-10.3849
売	-10.3853
▁Hana	-10.3855
▁合わせ	-10.3855
旨	-10.3858
▁always	-10.3859
落	-10.3864
tomi	-10.3865
▁best	-10.3869
▁able	-10.387
▁foundation	-10.3878
斎	-10.3879
GAWA	-10.3879
▁completely	-10.388
▁Additionally	-10.3881
▁妹	-10.3882
▁HA	-10.3882
▁音楽	-10.3883
▁immediately	-10.3887
▁Kobe	-10.3889
ori	-10.389
▁soon	-10.3891
▁Nai	-10.3892
▁favor	-10.3894
▁committ	-10.3895
▁additional	-10.3896
goku	-10.3897
SO	-10.3902
▁recent	-10.3912
殺	-10.3913
談	-10.3914
▁Godaigo	-10.3915
▁model	-10.3915
ak	-10.3917
▁羽	-10.3924
▁Jusanmi	-10.3928
▁地区	-10.3928
▁sha	-10.3929
▁兼任	-10.3929
之助	-10.3935
▁import	-10.3938
▁丹後	-10.3938
▁bring	-10.394
▁Pure	-10.394
▁薬	-10.394
▁escaped	-10.3943
▁港	-10.3947
▁honor	-10.395
▁起源	-10.395
▁別当	-10.3952
▁arriv	-10.3952
▁issue	-10.3953
▁know	-10.3954
▁出雲	-10.3954
▁嵯峨	-10.396
38	-10.3962
▁坂	-10.3962
▁call	-10.3965
▁true	-10.3973
▁上洛	-10.3974
▁game	-10.3976
▁peace	-10.3984
▁household	-10.3985
かけ	-10.3985
▁中宮	-10.3993
▁問	-10.3994
八	-10.3995
▁延喜	-10.3996
▁レ	-10.3999
営	-10.4003
▁厚	-10.4006
▁菊	-10.4007
▁politics	-10.4007
▁avoid	-10.4007
iwa	-10.4008
▁appearance	-10.4008
▁yo	-10.4011
▁cause	-10.4012
fa	-10.4012
▁帯	-10.4028
▁sei	-10.4028
▁Treasure	-10.403
▁批判	-10.403
▁employ	-10.403
▁越前	-10.4031
▁meat	-10.4035
▁across	-10.4042
▁supposed	-10.4042
べて	-10.4044
▁薄	-10.4052
摩	-10.4053
▁suppress	-10.4053
▁摂津	-10.4053
▁turn	-10.4061
▁兵庫	-10.4066
▁object	-10.4066
▁津	-10.4068
▁Yoshiaki	-10.4069
▁Kumano	-10.407
宅	-10.407
▁角	-10.4074
▁figure	-10.4077
▁一種	-10.4079
▁count	-10.4082
▁Ren	-10.4083
終	-10.409
▁Dan	-10.4091
▁worn	-10.4093
car	-10.4098
▁ordinary	-10.41
▁尚	-10.41
▁existence	-10.4101
teru	-10.4102
曲	-10.4111
▁比較	-10.4112
功	-10.4115
YO	-10.4122
▁install	-10.4123
zukuri	-10.4126
▁保護	-10.4136
▁大社	-10.414
tama	-10.4141
▁independent	-10.4142
▁District	-10.4147
▁博士	-10.4147
HARA	-10.4149
▁Party	-10.415
▁奪	-10.4159
▁二十	-10.416
▁Courts	-10.4161
収	-10.4161
▁施	-10.4164
▁surviv	-10.417
連	-10.4171
▁Pro	-10.4175
▁Gan	-10.418
▁文明	-10.4181
伏	-10.4181
kyoku	-10.4188
ション	-10.4193
バ	-10.4198
▁gon	-10.42
▁構造	-10.4205
▁すなわ	-10.4205
▁魚	-10.4205
▁鳥羽	-10.4206
▁祝	-10.421
▁entire	-10.4217
▁non	-10.4217
▁treasure	-10.4218
ac	-10.4221
▁詩	-10.4224
回	-10.4228
▁扱	-10.4233
話	-10.4237
▁軽	-10.4239
▁違	-10.424
▁principle	-10.424
ow	-10.4242
j	-10.4249
調	-10.4255
波	-10.4257
▁Gate	-10.4258
▁Hokke	-10.4262
▁嫡男	-10.4265
▁終わ	-10.4269
▁Express	-10.4276
▁改称	-10.4278
▁round	-10.428
止	-10.4284
▁equal	-10.4288
▁Ra	-10.4289
▁Shotoku	-10.4293
ough	-10.4293
▁柱	-10.4298
▁novel	-10.43
▁土佐	-10.4301
銭	-10.4305
▁grand	-10.4311
▁Azuchi	-10.4312
▁Park	-10.4312
▁一揆	-10.4312
▁禁止	-10.4312
▁蒸	-10.4313
サ	-10.4315
hu	-10.4316
示	-10.4316
▁exchange	-10.4319
▁区間	-10.4324
▁kill	-10.4324
祭	-10.4325
▁流派	-10.4326
▁scholar	-10.4327
▁幅	-10.4336
▁kimono	-10.4337
▁墨	-10.434
源	-10.4341
▁後世	-10.4343
つけ	-10.4343
▁歩	-10.4344
▁Assistant	-10.4347
▁果た	-10.4348
▁享保	-10.4348
▁息子	-10.4349
▁Ming	-10.4353
▁神戸	-10.4354
▁reported	-10.4357
▁進め	-10.4359
▁wish	-10.436
▁モ	-10.4368
▁営業	-10.4372
▁Hyogo	-10.4373
▁prayer	-10.4375
死	-10.4388
▁soup	-10.4388
▁庄	-10.4389
伐	-10.4395
▁Nagasaki	-10.4397
▁降	-10.4399
▁island	-10.4405
▁幹線	-10.4407
▁昇叙	-10.4407
gaki	-10.4408
▁ヒ	-10.4417
▁金剛	-10.4419
ビ	-10.4423
▁リ	-10.4431
▁相続	-10.4433
祖	-10.4434
▁love	-10.4437
児	-10.4443
しくは	-10.4455
華	-10.4457
▁li	-10.4458
KAWA	-10.4461
B	-10.4461
▁前後	-10.4461
▁Yoshimitsu	-10.4462
▁Ama	-10.4462
▁極	-10.4465
▁橘	-10.4467
▁calligraphy	-10.4467
▁最高	-10.4469
▁経営	-10.447
▁Taisho	-10.4474
▁背景	-10.448
▁海軍	-10.4483
▁服	-10.4483
▁walk	-10.4492
▁撮	-10.4502
▁facilities	-10.4504
らく	-10.4504
▁lady	-10.4516
▁Hira	-10.4517
▁Qing	-10.4528
▁採用	-10.4529
▁特別	-10.453
▁renamed	-10.4532
▁伝説	-10.4533
▁soba	-10.454
▁変更	-10.454
▁explain	-10.4552
▁demand	-10.4552
▁Haku	-10.4553
▁Michinaga	-10.4554
▁Roku	-10.4558
▁血	-10.456
傷	-10.4564
▁Municipal	-10.4564
▁management	-10.4565
▁Mikawa	-10.4569
ood	-10.4574
得	-10.4575
沼	-10.4576
▁稲	-10.4579
▁騎	-10.4582
差	-10.4588
▁念仏	-10.4589
▁剣	-10.4589
soku	-10.459
京	-10.4595
▁attached	-10.4597
▁期間	-10.4597
塔	-10.4601
▁四条	-10.4603
▁帰国	-10.4607
▁種類	-10.4614
▁採	-10.4618
▁Atsu	-10.4618
▁わけ	-10.4626
▁石川	-10.463
▁突	-10.463
▁platform	-10.4631
▁move	-10.4635
▁Harima	-10.4638
▁techniques	-10.4638
▁安土	-10.4641
▁version	-10.465
▁再建	-10.465
▁eighth	-10.4652
▁belonging	-10.4655
▁leaves	-10.4657
弟	-10.4661
▁後継	-10.4662
▁近鉄	-10.4663
▁関わ	-10.4668
便	-10.4673
▁Tama	-10.4674
▁Unit	-10.4674
▁religion	-10.4675
▁担当	-10.4675
2	-10.4682
▁ceremonies	-10.4687
▁deputy	-10.4687
▁喜	-10.4687
▁Book	-10.4687
jutsu	-10.4693
▁Le	-10.4695
▁与	-10.4697
段	-10.4699
▁教え	-10.47
▁安置	-10.4701
shoku	-10.4705
北	-10.471
▁導入	-10.4712
▁Shirakawa	-10.4712
▁尺	-10.4713
ever	-10.4714
▁free	-10.4716
▁桜	-10.4717
ue	-10.4721
束	-10.4724
▁詳細	-10.4724
▁MATSU	-10.4725
▁又	-10.473
▁含め	-10.4732
▁Kaku	-10.4737
ひ	-10.4738
証	-10.474
▁発見	-10.4741
▁met	-10.4742
づ	-10.4742
▁晴	-10.4743
the	-10.4744
▁確認	-10.4749
▁特急	-10.4749
▁脱	-10.475
▁証	-10.4755
誌	-10.4761
願	-10.4761
ダ	-10.4762
▁境内	-10.4762
cy	-10.4768
IN	-10.477
▁Awa	-10.4772
育	-10.4772
▁sides	-10.4775
▁Seki	-10.4777
spite	-10.4779
ranking	-10.4782
▁36	-10.4782
▁半島	-10.479
▁熱	-10.4795
ティ	-10.4799
▁busho	-10.48
▁hundred	-10.4802
▁吾	-10.4803
▁clothes	-10.4804
ically	-10.4804
▁La	-10.4808
▁appli	-10.4812
▁生没	-10.4812
▁2003	-10.4814
▁song	-10.4815
▁cl	-10.4821
▁旗本	-10.4824
▁光秀	-10.4825
▁熊野	-10.4826
君	-10.4828
▁32	-10.4828
sato	-10.483
▁望	-10.4835
▁Provision	-10.4836
▁behind	-10.4836
図	-10.484
▁done	-10.4842
▁won	-10.4844
▁固	-10.4845
▁air	-10.4846
▁Shinano	-10.4849
▁暗殺	-10.4849
▁宮中	-10.4858
▁授	-10.4859
▁project	-10.4861
▁房	-10.4862
akira	-10.4863
▁同志	-10.4863
史	-10.4871
▁作成	-10.4871
▁貫	-10.4871
▁Order	-10.4874
kasa	-10.4874
確	-10.4879
▁floor	-10.4886
▁fan	-10.4888
▁Kugyo	-10.4892
port	-10.4893
▁見せ	-10.4895
▁magistrate	-10.4899
▁Kuro	-10.4901
▁offices	-10.4903
▁琵琶	-10.4911
bara	-10.4912
▁分け	-10.4918
▁Bi	-10.4918
▁邸	-10.492
▁actors	-10.4922
▁Azuma	-10.4924
▁transfer	-10.4925
▁輸	-10.4928
守	-10.4928
▁paint	-10.493
▁担	-10.4932
▁belief	-10.4937
▁shows	-10.4937
▁指摘	-10.4937
▁憲法	-10.4938
▁恵	-10.4938
製	-10.4943
▁location	-10.4943
▁釈迦	-10.4949
▁一門	-10.495
moku	-10.4951
▁分類	-10.4952
▁観世	-10.4952
▁挙兵	-10.4962
孝	-10.497
▁Ishi	-10.4971
製作	-10.4972
▁organized	-10.4975
▁製造	-10.4976
▁Fa	-10.4976
▁三好	-10.498
▁新田	-10.4986
▁u	-10.4986
▁蘇我	-10.4987
▁Bas	-10.4989
愛	-10.4995
▁iron	-10.5002
▁advanced	-10.501
▁滅亡	-10.5013
▁grandson	-10.5018
▁雪	-10.5019
▁blood	-10.5026
▁Ca	-10.5026
状	-10.5029
▁訳	-10.5034
▁opening	-10.5038
▁百済	-10.5039
▁Toyotomi	-10.5039
▁区別	-10.5041
▁罪	-10.5051
与	-10.5059
▁Yoshinobu	-10.5061
▁貿易	-10.5064
▁heaven	-10.5064
▁letters	-10.507
▁Hei	-10.507
▁think	-10.5071
▁gun	-10.5072
▁打ち	-10.5074
▁勧	-10.5076
▁芸術	-10.5078
設	-10.5083
▁crop	-10.5092
▁disciples	-10.5098
▁庵	-10.51
▁holding	-10.5101
働	-10.5103
▁salt	-10.5104
▁sons	-10.5105
▁仮	-10.5111
ok	-10.5113
▁buried	-10.5116
mine	-10.5116
▁guardian	-10.5116
▁Pa	-10.5119
▁R	-10.5123
幣	-10.5128
▁currenc	-10.5128
▁庭園	-10.5129
▁管領	-10.5129
▁1872	-10.5132
dokoro	-10.5137
層	-10.514
先	-10.514
魂	-10.5141
▁dispute	-10.5141
▁伊藤	-10.5142
▁捕	-10.5145
▁陵	-10.5147
鳥	-10.5153
融	-10.5154
▁Bridge	-10.5154
▁advocat	-10.5154
miya	-10.5154
▁Katsura	-10.5159
▁図書	-10.5159
▁coin	-10.516
威	-10.5166
▁切り	-10.5194
▁ド	-10.5197
ble	-10.52
陽	-10.5201
▁賀茂	-10.5202
tch	-10.5203
▁mountains	-10.521
▁三男	-10.5217
▁yield	-10.5219
枝	-10.5219
time	-10.5221
▁所在	-10.5222
▁道長	-10.5222
▁cross	-10.5223
▁修行	-10.5223
▁宮内	-10.5228
▁バ	-10.523
▁pattern	-10.5231
計	-10.5232
ハ	-10.5233
▁ge	-10.5239
幸	-10.524
▁concept	-10.5245
▁happen	-10.5245
▁Records	-10.5252
▁previous	-10.5255
礼	-10.5257
RO	-10.526
▁bowl	-10.5262
▁俗	-10.5262
帯	-10.5265
▁ちな	-10.5266
▁本堂	-10.5267
▁accompani	-10.5269
▁implement	-10.5271
引	-10.5273
▁contribut	-10.5275
▁離れ	-10.5275
▁track	-10.5276
▁grandfather	-10.5281
▁国道	-10.5287
▁上京	-10.529
lic	-10.529
▁財政	-10.529
▁necessar	-10.5291
▁tumulus	-10.5298
gg	-10.5299
夜	-10.5299
▁予	-10.5299
▁turned	-10.5303
▁kinds	-10.5305
御	-10.531
▁Shinkansen	-10.531
▁scale	-10.5311
去	-10.5311
▁UESUGI	-10.5324
▁sudden	-10.5324
▁成功	-10.5325
ice	-10.5326
▁昌	-10.5326
▁Hachiman	-10.5329
念	-10.533
▁役割	-10.5337
▁Taiwan	-10.5337
▁官人	-10.5338
law	-10.5346
▁nature	-10.535
▁単位	-10.5353
覧	-10.5355
▁変わ	-10.5358
▁companies	-10.5363
▁piece	-10.5366
ization	-10.5366
▁押	-10.5367
▁納	-10.5375
▁longer	-10.5376
▁morning	-10.5376
▁指揮	-10.5376
▁duties	-10.5377
▁新選	-10.5378
▁ロ	-10.5385
▁your	-10.5385
▁谷	-10.5386
▁似	-10.5387
▁king	-10.5388
oto	-10.539
▁Echigo	-10.5403
▁1867	-10.5409
xi	-10.5412
▁teachings	-10.5414
市	-10.5415
▁decision	-10.5416
▁eventual	-10.5417
▁Sakai	-10.5418
僧	-10.5421
▁incorporat	-10.5425
▁ya	-10.5425
▁西洋	-10.543
習	-10.5431
▁indicat	-10.5434
従	-10.5434
▁三河	-10.5436
▁拡大	-10.5443
▁台湾	-10.5443
ppo	-10.5444
haku	-10.5445
立て	-10.5451
▁wall	-10.5451
敗	-10.5455
▁昇進	-10.5457
▁refus	-10.5457
丸	-10.5457
▁甘	-10.5458
▁settl	-10.5458
▁Tenmu	-10.5461
▁隠	-10.5466
▁mon	-10.5467
oji	-10.5469
▁NAKA	-10.5469
▁普及	-10.5469
▁basic	-10.5476
▁代々	-10.5478
▁Mito	-10.5481
▁Yoshimasa	-10.5481
▁唱え	-10.5483
芸	-10.5483
▁代わ	-10.5484
▁京極	-10.5485
▁35	-10.5488
密	-10.5488
▁井上	-10.5488
▁季	-10.549
▁emperors	-10.5493
謀	-10.5495
▁開催	-10.5496
▁協会	-10.5497
▁Under	-10.5497
▁再興	-10.5498
季	-10.5502
▁Nu	-10.5509
▁summer	-10.5509
▁Kurodo	-10.5509
▁ITO	-10.551
▁occasion	-10.551
▁弾	-10.5511
▁captur	-10.5513
▁境	-10.5515
▁背	-10.5529
ps	-10.5535
▁摂関	-10.5536
▁議員	-10.5537
▁mean	-10.554
▁すぐ	-10.5545
ight	-10.5549
▁question	-10.555
孫	-10.5554
▁officially	-10.5555
▁insist	-10.5556
SA	-10.5558
▁Hiei	-10.556
▁crest	-10.5563
▁宗家	-10.5565
▁訪	-10.5567
tane	-10.5574
▁快速	-10.5577
uta	-10.5583
▁All	-10.5584
kuri	-10.5585
▁徒歩	-10.559
▁Izumi	-10.5592
▁mind	-10.5595
sue	-10.56
▁焼き	-10.5602
▁Shijo	-10.5603
▁funeral	-10.5604
▁播磨	-10.5604
▁H	-10.5604
紀	-10.5614
▁Thu	-10.5614
▁大久保	-10.5617
▁落ち	-10.5619
好	-10.5619
▁Yoshinaka	-10.5621
▁Code	-10.5622
▁欠	-10.5624
▁manufactur	-10.5629
事務	-10.563
▁Yamashina	-10.5631
▁drum	-10.5631
▁実施	-10.5632
▁範	-10.5632
▁立像	-10.5634
亀	-10.5639
▁全体	-10.564
▁依	-10.5643
▁serious	-10.5644
▁70	-10.5644
▁東海道	-10.5645
ap	-10.5645
▁space	-10.5645
輔	-10.5646
▁bad	-10.5649
▁screen	-10.5658
底	-10.5658
▁新し	-10.5658
▁子供	-10.5658
番	-10.5659
▁冷	-10.5661
▁侍	-10.5662
▁expression	-10.5663
▁Raku	-10.5668
▁Tenno	-10.5668
▁帖	-10.5671
▁鋳	-10.5671
▁甲斐	-10.5672
▁解釈	-10.5672
▁Ichijo	-10.5673
▁arrow	-10.5677
▁basis	-10.569
▁Nagoya	-10.5699
▁price	-10.5699
▁つく	-10.57
▁山科	-10.5705
▁秘	-10.5707
▁尾	-10.5709
▁forest	-10.5709
▁詠	-10.5712
▁Summary	-10.5712
▁祖父	-10.5713
▁発表	-10.5713
▁drama	-10.5714
▁声	-10.5717
▁replac	-10.5717
▁quality	-10.572
▁tai	-10.572
▁Kaga	-10.5722
▁Kagami	-10.5726
▁illness	-10.5727
▁80	-10.5733
Japanese	-10.5737
▁国民	-10.5738
kazu	-10.574
▁bridge	-10.574
▁Wakashu	-10.5744
▁崩御	-10.5754
▁Kasuga	-10.5754
▁department	-10.5755
▁appointment	-10.5755
▁reading	-10.5763
▁connection	-10.5764
kon	-10.5764
▁adviser	-10.5767
▁Sea	-10.5772
▁nine	-10.5773
▁鶴	-10.5778
▁Rei	-10.578
▁Master	-10.5783
▁太平	-10.5783
▁犬	-10.5792
▁barbarians	-10.5795
▁lands	-10.5803
▁Iyo	-10.5804
eaten	-10.5807
ard	-10.5808
▁Constitution	-10.5809
▁economic	-10.5809
▁茂	-10.5811
▁Hachi	-10.5815
布	-10.5815
則	-10.5821
▁帳	-10.5822
▁dress	-10.5822
▁伊達	-10.5823
lin	-10.583
kaido	-10.5832
ップ	-10.5837
▁返	-10.5842
▁let	-10.5843
▁安政	-10.5845
▁Hitachi	-10.5851
▁統治	-10.5866
▁後半	-10.5866
浦	-10.5872
▁examples	-10.5875
▁flower	-10.5877
▁施行	-10.588
▁defin	-10.5891
▁beautiful	-10.5892
▁division	-10.5892
▁grade	-10.5892
▁TAKEDA	-10.5892
▁faction	-10.5893
板	-10.5894
▁Aizu	-10.5895
▁rest	-10.5895
▁文政	-10.5902
▁sushi	-10.5903
▁accept	-10.5903
▁maintain	-10.5903
▁ship	-10.5907
▁teacher	-10.5909
▁mark	-10.5911
▁国内	-10.5912
▁Li	-10.5915
nami	-10.5919
▁Kofuku	-10.5926
▁association	-10.5929
将	-10.5931
▁計	-10.5933
察	-10.5933
▁北海道	-10.5934
▁marriage	-10.5936
▁救	-10.5937
▁急行	-10.5938
▁敬	-10.5939
▁Oe	-10.594
▁純	-10.5944
▁摂政	-10.5948
▁標	-10.5952
tive	-10.5956
▁future	-10.5962
▁密教	-10.5962
▁festivals	-10.5962
題	-10.5963
▁classifi	-10.5965
toyo	-10.597
▁starting	-10.597
▁Shoshi	-10.5972
ograph	-10.5975
匠	-10.5976
▁meant	-10.5976
▁hands	-10.5976
▁形態	-10.5978
▁Udaijin	-10.5978
▁Per	-10.5982
離	-10.5989
▁Izu	-10.599
▁fighting	-10.5991
庵	-10.5992
▁submitt	-10.5996
▁restored	-10.6
▁friend	-10.6003
▁烏丸	-10.6004
▁遺跡	-10.6005
BA	-10.6006
▁吉良	-10.6006
▁1863	-10.6008
▁Oi	-10.601
▁会津	-10.6013
▁pay	-10.6022
上が	-10.6023
弥	-10.6026
pped	-10.6026
▁depart	-10.603
▁reasons	-10.6033
▁Sakyo	-10.6045
勤	-10.6045
▁disappear	-10.6046
▁停車	-10.6046
▁二人	-10.6048
▁様式	-10.6049
▁左衛門	-10.606
▁宣下	-10.6062
▁まず	-10.6066
NE	-10.6074
▁途中	-10.6074
▁farmers	-10.6075
▁指導	-10.6076
▁followers	-10.6079
▁particularly	-10.6083
▁uncle	-10.6088
弘	-10.609
▁inner	-10.6091
▁大蔵	-10.6094
▁working	-10.6102
▁信濃	-10.6103
▁restoration	-10.6103
▁ツ	-10.6106
▁報	-10.6109
▁斉	-10.6113
▁官職	-10.6121
▁suffer	-10.6124
▁Tane	-10.6125
1	-10.6131
▁朱	-10.6131
▁subdue	-10.6132
kimi	-10.6133
▁関連	-10.6133
▁mu	-10.6139
▁mausoleum	-10.6145
▁適	-10.6146
▁po	-10.6154
必ず	-10.6157
▁協	-10.6159
緒	-10.616
▁folk	-10.616
▁pronounc	-10.616
▁Enryaku	-10.616
▁塚	-10.6161
▁既に	-10.6161
▁allow	-10.6163
寄	-10.6167
▁街	-10.6171
▁工事	-10.6172
▁maternal	-10.6174
▁春日	-10.6177
pen	-10.6178
ング	-10.6187
▁language	-10.6188
▁左京	-10.6189
▁典	-10.6192
▁評	-10.6192
▁院政	-10.6194
▁chapter	-10.6196
37	-10.62
▁!	-10.6203
▁bell	-10.6208
▁Sue	-10.621
▁Shoku	-10.6213
▁統一	-10.6214
jun	-10.6219
▁ban	-10.6221
酒	-10.6223
▁茶道	-10.6223
▁デ	-10.6226
▁mass	-10.6226
挙	-10.623
岳	-10.6231
▁敗れ	-10.6232
▁神話	-10.6236
▁Out	-10.6237
舞	-10.6239
▁かん	-10.624
ery	-10.6241
HO	-10.6246
▁弥	-10.6251
▁learning	-10.6254
▁初め	-10.6255
▁飲	-10.6259
▁合併	-10.626
▁Koto	-10.6261
服	-10.6263
▁庶	-10.6265
ガ	-10.6269
▁account	-10.6275
▁Sekigahara	-10.6275
F	-10.6286
▁隠居	-10.629
▁imp	-10.6293
二	-10.6295
▁小説	-10.6299
▁intention	-10.6304
▁something	-10.6304
▁appoint	-10.6304
▁Nichi	-10.6305
shichi	-10.6305
▁1889	-10.6309
照	-10.631
▁Shikibu	-10.6313
▁surface	-10.6318
DO	-10.6318
茶	-10.6328
▁医	-10.6329
▁Otomo	-10.6332
▁fail	-10.6332
▁stated	-10.6345
▁造営	-10.6349
▁Sadaijin	-10.6349
oku	-10.6353
▁MA	-10.6356
▁衣	-10.636
ability	-10.636
▁expand	-10.6362
▁越後	-10.6362
▁paid	-10.6363
▁任官	-10.6365
▁Ima	-10.6368
▁文久	-10.6369
ating	-10.637
▁kanji	-10.6371
▁HI	-10.6383
校	-10.6385
▁mound	-10.6386
想	-10.6387
納	-10.6387
▁歴任	-10.6391
▁交渉	-10.6391
▁belong	-10.6391
▁遣	-10.6393
kichi	-10.6394
▁分かれ	-10.6394
▁対応	-10.6398
▁criticiz	-10.6401
while	-10.6403
▁蝦夷	-10.6406
▁enthronement	-10.6406
▁教授	-10.6406
▁拒	-10.6406
▁かか	-10.6408
▁kin	-10.6418
▁懐	-10.6429
king	-10.6434
▁葉	-10.6435
▁arrang	-10.6435
kofun	-10.6435
▁ingredients	-10.6436
▁frequently	-10.6439
▁敷	-10.644
▁絹	-10.6448
▁Bakufu	-10.645
cc	-10.6451
▁普	-10.6452
▁Hiroshima	-10.6453
▁Ai	-10.6461
▁アジア	-10.6465
僚	-10.6465
▁左右	-10.6465
▁伯	-10.6468
▁連合	-10.6469
千	-10.6473
▁bound	-10.6473
zei	-10.6473
▁studies	-10.6474
▁job	-10.6475
▁乗り	-10.6478
▁醤油	-10.6479
like	-10.648
▁stopp	-10.6481
▁plant	-10.6482
called	-10.6483
▁輪	-10.6484
因	-10.6492
▁temporary	-10.6494
▁market	-10.6495
▁institution	-10.6496
▁box	-10.6496
▁1990	-10.6496
▁煮	-10.6503
却	-10.6509
▁出版	-10.6511
▁千葉	-10.6511
羅	-10.6512
▁銘	-10.6516
▁Kara	-10.652
▁Shira	-10.6522
▁KAWA	-10.6523
后	-10.6523
▁Ran	-10.6526
▁小野	-10.653
▁記事	-10.6536
▁influential	-10.6539
▁Mean	-10.6543
▁possess	-10.6546
▁近く	-10.6553
▁program	-10.6554
▁difference	-10.6566
▁Day	-10.6567
末	-10.6568
▁thirty	-10.6568
▁president	-10.6568
額	-10.6569
satsu	-10.6569
▁行動	-10.6571
▁拝	-10.6573
▁ヲ	-10.6573
▁超	-10.6574
▁章	-10.6582
▁That	-10.6583
▁庶民	-10.6584
ター	-10.6585
▁Shingen	-10.6595
▁surname	-10.6598
▁excellent	-10.6598
▁den	-10.6607
▁stick	-10.6613
▁追放	-10.6613
▁古今	-10.6613
▁少将	-10.6614
破	-10.6614
港	-10.6617
oshi	-10.6621
▁しん	-10.6623
▁painter	-10.6624
▁供養	-10.6628
▁punishment	-10.6629
▁六角	-10.663
▁性格	-10.6632
▁thin	-10.6636
▁closed	-10.6637
giving	-10.6638
衙	-10.6643
▁brewing	-10.6643
▁逃れ	-10.6643
▁福知山	-10.6645
那	-10.6645
小路	-10.6646
▁miya	-10.6646
▁classical	-10.6647
▁広島	-10.6652
▁寸	-10.6652
▁rain	-10.6655
▁troop	-10.6656
▁鹿児島	-10.6658
▁costume	-10.6658
▁文章	-10.666
▁向け	-10.666
宣	-10.666
quite	-10.666
▁簡	-10.6661
▁whom	-10.6662
▁Due	-10.6662
▁theater	-10.6662
▁堺	-10.6663
▁Oka	-10.6664
▁干	-10.6664
▁care	-10.6671
▁功績	-10.6673
▁昇	-10.6675
▁Kagoshima	-10.6688
▁People	-10.6688
▁send	-10.669
▁tower	-10.669
▁行為	-10.669
▁2002	-10.6693
▁am	-10.6693
▁shops	-10.6693
▁Uta	-10.6694
▁ABE	-10.6699
▁地蔵	-10.67
▁villages	-10.6704
▁濃	-10.6704
▁庭	-10.6716
▁dried	-10.6718
zuki	-10.6719
▁ど	-10.6722
▁ホ	-10.6728
TO	-10.6728
刃	-10.6733
▁Doshisha	-10.6733
▁終	-10.6737
end	-10.6738
▁God	-10.6749
▁drawn	-10.6751
▁コン	-10.6752
む	-10.6752
栄	-10.6753
▁今川	-10.6755
▁姉	-10.6758
▁Original	-10.6764
▁繁	-10.6768
▁会議	-10.677
▁入り	-10.6771
rank	-10.6771
▁平城	-10.6774
▁妃	-10.6776
▁earth	-10.6777
▁Agency	-10.6781
▁家老	-10.6785
▁1600	-10.6786
▁merchants	-10.6788
▁作者	-10.6791
▁ナ	-10.6793
▁走	-10.6795
▁岡	-10.6795
▁1864	-10.68
▁扇	-10.68
▁correspond	-10.6804
▁名古屋	-10.6809
▁○	-10.681
art	-10.6812
▁葛	-10.6814
councilor	-10.6815
▁圧	-10.6816
▁height	-10.6817
▁Koya	-10.6817
▁Min	-10.6819
▁貴	-10.682
▁絶	-10.6822
否	-10.6825
▁OTOMO	-10.6826
▁離	-10.6833
chin	-10.6833
▁学生	-10.6837
▁侍従	-10.684
▁寛文	-10.6843
▁山口	-10.6844
tto	-10.6852
▁夢	-10.686
▁給	-10.687
▁headquarter	-10.6871
▁油	-10.6871
▁cooking	-10.6872
▁egg	-10.6872
▁命令	-10.6873
▁動き	-10.6876
▁1870	-10.6877
▁大師	-10.6878
替	-10.6881
▁Europe	-10.6884
▁releas	-10.6886
▁Fukuoka	-10.6887
▁最大	-10.6889
▁translat	-10.6891
交	-10.6891
▁戒	-10.6892
ities	-10.6897
▁就	-10.69
▁敦	-10.6901
慮	-10.6901
▁受	-10.6902
▁Rikyu	-10.6903
もと	-10.6908
▁cap	-10.691
▁差	-10.6912
球	-10.6916
▁1997	-10.6919
▁Five	-10.6921
毎年	-10.6921
▁違い	-10.6925
▁珍	-10.6931
▁狭	-10.6937
▁variety	-10.6948
▁condition	-10.6948
ging	-10.6953
判	-10.6955
▁battles	-10.6957
▁Kongo	-10.6958
▁doctor	-10.6963
▁しばし	-10.6966
▁皮	-10.6968
▁Kura	-10.6973
hama	-10.6977
▁Uchi	-10.6979
▁finish	-10.6979
▁員	-10.6979
▁和歌集	-10.698
▁かた	-10.6982
ware	-10.6982
ペ	-10.6988
▁rules	-10.6992
▁autumn	-10.6994
▁右京	-10.6995
▁Hankyu	-10.6996
▁主な	-10.6999
▁義満	-10.6999
▁1873	-10.6999
nushi	-10.7003
結	-10.7003
▁Aka	-10.7006
▁Hai	-10.7006
▁Gion	-10.7006
▁団体	-10.7013
▁merg	-10.7017
▁items	-10.7018
露	-10.702
▁Research	-10.7025
▁prais	-10.7025
▁人気	-10.7027
▁Tokaido	-10.7031
▁紋	-10.7034
▁periods	-10.7035
▁eating	-10.7043
▁句	-10.7046
▁池田	-10.7048
▁Daishi	-10.7049
▁fill	-10.7049
aries	-10.7054
▁ones	-10.7056
▁紀伊	-10.7057
▁戦死	-10.7058
zaki	-10.7063
エ	-10.7064
えば	-10.7067
▁撰	-10.7067
▁木津	-10.7071
▁edict	-10.7072
▁k	-10.7073
▁山田	-10.7078
▁wind	-10.7078
gura	-10.7079
▁ブ	-10.7081
▁だい	-10.7081
shaku	-10.7084
▁ころ	-10.7085
yet	-10.7085
▁descend	-10.7086
▁break	-10.7088
▁追討	-10.7088
▁kabuki	-10.7088
house	-10.71
▁Volume	-10.7104
速	-10.7111
masu	-10.7117
▁Institute	-10.7119
▁increasing	-10.7119
▁portrait	-10.7119
▁拠点	-10.7119
ong	-10.7121
▁加賀	-10.7121
▁詳	-10.7123
善	-10.7131
▁地名	-10.7131
▁achievements	-10.7131
除	-10.7132
taisha	-10.7132
縁	-10.7133
▁English	-10.7135
▁概要	-10.7135
▁常陸	-10.7135
▁冷泉	-10.7135
やか	-10.7141
▁箱	-10.7148
▁Mountain	-10.7151
▁Peninsula	-10.7151
▁industry	-10.7151
SHIMA	-10.7152
▁所有	-10.7156
▁出土	-10.7159
▁produce	-10.7161
▁prepared	-10.7161
▁match	-10.7163
▁大友	-10.7165
▁Corporation	-10.7167
▁audience	-10.7167
▁阪急	-10.7167
▁過ぎ	-10.7168
▁大伴	-10.7169
chujo	-10.717
▁1582	-10.7175
▁使者	-10.7178
▁恋	-10.7183
▁顔	-10.719
存	-10.719
▁Most	-10.7191
▁監	-10.7193
▁休	-10.7193
▁センター	-10.7198
▁畿内	-10.7198
▁background	-10.7199
▁原因	-10.7199
▁academic	-10.7214
▁thick	-10.7214
▁畠山	-10.7214
▁亀	-10.7215
▁moon	-10.7217
▁Kii	-10.7223
▁34	-10.7226
▁国守	-10.7226
▁accord	-10.7226
塚	-10.7228
▁Cabinet	-10.723
▁被	-10.7231
▁小さ	-10.7233
of	-10.7236
▁sc	-10.7238
▁Za	-10.7241
▁stand	-10.7245
▁conduct	-10.7246
▁distance	-10.7246
▁arrest	-10.7246
▁ninth	-10.7246
▁数え	-10.725
▁Mochi	-10.7252
養	-10.726
ふ	-10.7261
▁Tatsu	-10.7261
▁Science	-10.7262
▁Karasuma	-10.7262
▁guest	-10.7262
▁manager	-10.7263
▁Ukyo	-10.7264
row	-10.7266
▁張	-10.7267
▁鹿	-10.7271
▁flowers	-10.7273
atsu	-10.7274
象	-10.7276
▁transportation	-10.728
▁ちょう	-10.7282
▁ガ	-10.7288
▁civil	-10.7294
▁territorial	-10.7294
■	-10.7294
▁生涯	-10.7294
head	-10.7301
閣	-10.7306
▁receive	-10.7307
▁札	-10.7308
給	-10.7309
oko	-10.7309
▁disease	-10.731
▁vi	-10.731
▁開設	-10.7312
ZU	-10.7314
for	-10.7314
▁double	-10.7326
▁knowledge	-10.7326
▁target	-10.7326
▁水戸	-10.733
▁移転	-10.7343
▁提出	-10.7344
▁million	-10.7344
▁chu	-10.7351
志	-10.7357
百	-10.7358
積	-10.7359
ement	-10.7361
▁songs	-10.7365
▁preserv	-10.7366
scale	-10.7374
資	-10.7374
▁ポ	-10.7376
▁奏	-10.7377
▁まだ	-10.7378
▁地頭	-10.7383
▁劇	-10.7387
▁可	-10.7388
▁Yakushi	-10.7389
真	-10.7389
▁KONOE	-10.739
▁responsibl	-10.739
▁インド	-10.7391
uri	-10.7392
▁市川	-10.7393
▁separated	-10.7394
▁practical	-10.7396
nder	-10.7396
bushi	-10.74
bai	-10.7405
▁restaurants	-10.7407
▁大江	-10.7407
▁車両	-10.7407
▁1000	-10.7408
▁浜	-10.741
tari	-10.7419
返	-10.7422
▁処	-10.7423
▁temporari	-10.7423
▁晩年	-10.7423
▁登録	-10.7423
kiri	-10.7423
▁1970	-10.7425
▁惟	-10.7429
▁sutra	-10.7429
▁declined	-10.7431
nu	-10.7431
▁miko	-10.7432
▁Jizo	-10.7433
▁技	-10.7435
▁大神	-10.7438
▁confirm	-10.7439
▁学問	-10.7441
▁wearing	-10.7448
hen	-10.7456
▁城主	-10.7458
br	-10.7461
▁Gojo	-10.7463
▁苦	-10.7468
▁ボ	-10.7469
▁亡く	-10.7474
▁associat	-10.7475
▁articles	-10.7475
hachi	-10.7482
▁候	-10.7489
十郎	-10.749
▁exists	-10.7493
▁princess	-10.7493
▁IWA	-10.7494
▁請	-10.7498
▁葬	-10.7503
旦	-10.7504
▁もっとも	-10.7504
▁焼失	-10.7505
▁淀	-10.7511
▁Kanmu	-10.7513
▁同一	-10.7513
kka	-10.7515
▁接	-10.7516
▁approv	-10.7516
▁simple	-10.7521
▁annual	-10.7521
父	-10.7521
▁男性	-10.7522
▁写本	-10.7522
▁農民	-10.7522
▁読み	-10.7526
▁課	-10.7529
▁offering	-10.7531
etsu	-10.7532
▁憲	-10.7535
撰	-10.7539
▁巨	-10.7542
▁provide	-10.7543
▁刊行	-10.7553
▁regional	-10.7557
▁避	-10.7564
婚	-10.7569
▁adult	-10.757
▁すれ	-10.7572
▁寛政	-10.7573
▁消	-10.7575
▁Pre	-10.7575
告	-10.7575
▁gi	-10.7586
ike	-10.7587
▁建武	-10.7588
▁rock	-10.7588
聞	-10.7589
▁Kimi	-10.7593
▁Uma	-10.7595
KU	-10.7597
▁ソ	-10.7597
ヨ	-10.7603
▁公開	-10.7604
▁Oshi	-10.7606
兼	-10.7609
▁measures	-10.761
▁relocat	-10.7615
▁cabinet	-10.7619
環	-10.7619
▁evil	-10.7619
▁Head	-10.762
しろ	-10.7621
▁38	-10.7622
▁Shiba	-10.7623
ぜ	-10.7626
▁役者	-10.7627
▁circumstances	-10.7629
▁セ	-10.7634
▁Empire	-10.7636
▁東北	-10.7639
済	-10.764
▁祭神	-10.7641
▁元和	-10.7642
▁不動	-10.7643
衛	-10.7643
▁軒	-10.7644
▁lecture	-10.7645
▁titles	-10.7646
▁別名	-10.7649
▁recommend	-10.765
▁Hosokawa	-10.7653
▁rebuil	-10.7653
▁winter	-10.7653
▁Wakasa	-10.7654
代わり	-10.7655
cent	-10.7665
▁Kukai	-10.7666
▁質	-10.7667
▁薨去	-10.7669
▁ascend	-10.7669
▁是	-10.7671
張	-10.7672
▁000	-10.7673
▁37	-10.7674
▁TACHIBANA	-10.7686
▁文献	-10.7686
▁Sun	-10.7686
▁師範	-10.7687
▁mai	-10.7687
mari	-10.769
▁流行	-10.769
▁結成	-10.7693
ine	-10.7695
変	-10.77
▁電鉄	-10.7703
▁信玄	-10.7703
▁申	-10.7704
▁store	-10.7704
let	-10.7705
▁岡山	-10.7706
kuro	-10.7707
▁passengers	-10.7708
▁商人	-10.7709
▁Record	-10.771
▁日野	-10.7712
▁情報	-10.7719
▁permission	-10.7719
▁Kumamoto	-10.772
▁伊賀	-10.7721
▁慈	-10.7721
▁1928	-10.7722
jaku	-10.7723
▁goods	-10.773
▁removed	-10.7733
垣	-10.7733
映	-10.7734
▁級	-10.7735
▁衰退	-10.7736
▁1980	-10.7738
par	-10.7739
▁Ura	-10.7741
▁range	-10.7745
森	-10.7745
mor	-10.7746
▁successful	-10.7753
▁和泉	-10.7755
▁South	-10.7756
▁extended	-10.7765
▁提	-10.7766
▁詔	-10.7769
▁sugar	-10.777
saburo	-10.7771
▁直後	-10.7774
▁matter	-10.7778
ゃ	-10.7779
▁ke	-10.778
KO	-10.7781
ire	-10.7785
▁雨	-10.7785
▁cherry	-10.7786
▁survey	-10.7786
塾	-10.7786
▁Date	-10.7789
kken	-10.7792
▁文禄	-10.7795
襲	-10.7796
▁村上	-10.7796
▁dy	-10.7798
▁YAMA	-10.7798
▁祇園	-10.7803
▁菓子	-10.7803
▁否定	-10.7803
oi	-10.7803
ties	-10.7803
▁粉	-10.7808
▁圏	-10.7809
▁Dewa	-10.781
▁吹	-10.7812
▁女子	-10.7812
▁student	-10.7812
▁measure	-10.7812
▁detail	-10.7813
富	-10.7814
▁男子	-10.7817
▁martial	-10.782
▁staff	-10.782
▁比叡山	-10.7821
cation	-10.7821
▁advance	-10.7822
old	-10.7825
六	-10.7831
▁浮	-10.7844
▁self	-10.7845
十	-10.7852
▁simply	-10.7854
▁burial	-10.7854
▁Nyo	-10.7857
▁remaining	-10.7858
▁flavor	-10.7858
ber	-10.786
▁嫡	-10.7862
▁prefix	-10.7871
▁狂言	-10.7871
▁X	-10.7872
ology	-10.7872
▁峠	-10.7872
▁墓所	-10.7873
▁shall	-10.7873
▁Iga	-10.7875
▁練	-10.788
▁Yoshitaka	-10.7883
▁行き	-10.7887
▁narrow	-10.7888
▁貞観	-10.7889
▁樹	-10.7896
nojo	-10.7901
▁肉	-10.7902
譜	-10.7904
▁Chamberlain	-10.7905
▁facility	-10.7905
▁KUJO	-10.7905
▁比べ	-10.7906
▁1950	-10.7908
▁Today	-10.7915
▁案	-10.7916
比	-10.7918
qui	-10.792
隈	-10.7922
▁伊予	-10.7922
円	-10.7924
▁岐	-10.7924
hyo	-10.7925
taku	-10.7929
known	-10.7934
▁召	-10.7934
gar	-10.7937
tsuke	-10.7938
奈	-10.7939
合い	-10.7939
▁同盟	-10.7941
▁We	-10.7946
致	-10.7948
▁manuscript	-10.7949
▁bank	-10.7951
EN	-10.7953
ヤ	-10.7953
は	-10.7955
▁Ono	-10.7956
▁achiev	-10.7956
▁彦	-10.7958
▁Okayama	-10.7958
▁元服	-10.796
▁師事	-10.7962
▁eat	-10.7962
▁Yoshitomo	-10.7962
▁continue	-10.7963
juku	-10.7964
▁Miyazu	-10.7964
▁宮津	-10.7966
▁Dazai	-10.7972
▁monument	-10.7973
print	-10.7974
▁系図	-10.7974
ワ	-10.7975
▁制作	-10.7978
兄	-10.7979
▁Kokushi	-10.7982
▁tell	-10.7983
ラン	-10.7985
▁Suruga	-10.799
▁advantage	-10.799
▁兵衛	-10.7998
▁koto	-10.7998
▁complete	-10.8002
press	-10.8002
恵	-10.8005
▁rapid	-10.8009
▁路	-10.8012
▁propos	-10.8014
▁あり	-10.8014
▁saw	-10.8016
県	-10.8021
mizu	-10.8021
▁hid	-10.8021
MOTO	-10.8021
▁changes	-10.8023
▁Kingdom	-10.8025
▁plays	-10.8026
▁makes	-10.8027
▁Kurama	-10.8028
▁争い	-10.8028
ari	-10.803
▁保元	-10.8031
▁東国	-10.8031
▁グ	-10.8036
▁Gaku	-10.8039
待	-10.8041
▁typical	-10.8042
洲	-10.8042
▁外交	-10.8044
▁peasants	-10.805
wn	-10.8054
換	-10.8056
新羅	-10.8056
▁nobility	-10.8057
▁leav	-10.8058
▁分離	-10.8061
▁1898	-10.8065
▁脇	-10.8065
途	-10.8075
復	-10.8075
新	-10.8076
▁conditions	-10.8076
刻	-10.8076
juro	-10.8076
▁イギリス	-10.8076
▁明智	-10.808
▁様子	-10.808
▁regulations	-10.8082
▁所蔵	-10.8087
▁Rin	-10.8089
▁heard	-10.8091
▁tale	-10.8093
左衛門	-10.8093
▁条件	-10.8094
▁castles	-10.8094
▁patterns	-10.8095
▁杉	-10.8096
▁静	-10.8098
▁知行	-10.8098
▁leave	-10.8101
▁契	-10.8106
▁scholars	-10.8106
▁Faculty	-10.8111
▁唯一	-10.8111
▁遅	-10.8113
▁Ume	-10.8123
▁奇	-10.8125
滅	-10.8127
▁crown	-10.8128
▁価値	-10.8128
▁紹介	-10.8128
▁毎	-10.8132
▁着用	-10.8134
▁流通	-10.8136
▁菅原	-10.8147
息	-10.8147
▁attain	-10.8148
▁邦	-10.815
wake	-10.8151
▁ごろ	-10.8152
▁大宮	-10.8154
▁本山	-10.8158
▁Ara	-10.8161
▁combin	-10.8161
章	-10.8162
▁井	-10.8163
▁設定	-10.8163
▁展開	-10.8163
▁復活	-10.8163
▁Uesugi	-10.8168
▁lives	-10.8169
▁南部	-10.8178
▁gathered	-10.8179
▁stipend	-10.8181
▁Train	-10.8181
帝	-10.8182
▁百姓	-10.8182
J	-10.8183
▁Kinki	-10.8184
▁大谷	-10.8185
▁件	-10.819
▁build	-10.8198
韓	-10.8198
discovered	-10.8198
▁許可	-10.8199
▁復興	-10.8199
▁professional	-10.8202
徒	-10.8206
▁尽	-10.8206
▁fixed	-10.8206
▁subsequently	-10.8208
▁determined	-10.8208
▁策	-10.8212
▁films	-10.8215
▁concubine	-10.8216
▁gokenin	-10.8216
▁Diary	-10.8217
▁spirits	-10.8218
▁maintained	-10.8219
kake	-10.8222
乗	-10.8222
▁握	-10.8224
たら	-10.8226
form	-10.8226
庭	-10.8228
▁manner	-10.8229
000	-10.8234
厳	-10.8235
▁2001	-10.8239
▁露	-10.824
▁浄	-10.8242
▁正二	-10.825
▁Before	-10.8251
▁ICOCA	-10.8251
▁Old	-10.8251
▁Clan	-10.8252
▁機能	-10.8253
▁revision	-10.8253
▁chant	-10.8254
llied	-10.8259
▁大戦	-10.8265
▁consort	-10.8269
▁裁判	-10.8269
▁find	-10.8269
▁天守	-10.8272
▁1890	-10.8274
▁投	-10.8277
▁端	-10.8286
▁international	-10.8286
▁主要	-10.8288
▁編入	-10.8288
▁Daijokan	-10.829
▁ranking	-10.829
▁万葉	-10.8291
▁警	-10.8292
▁伝来	-10.8295
boshi	-10.8295
▁才	-10.8302
▁conclud	-10.8304
▁talk	-10.8304
▁boat	-10.8307
▁sects	-10.8312
▁shop	-10.8318
曜	-10.8322
kki	-10.8323
▁1945	-10.8324
nokami	-10.8325
goto	-10.8335
己	-10.8339
▁strongly	-10.834
▁Seiwa	-10.8342
▁起き	-10.8344
▁Daimyo	-10.8348
▁方向	-10.8348
▁boy	-10.8351
▁Sendai	-10.8353
▁taxes	-10.8354
田原	-10.8354
▁高倉	-10.8356
getsu	-10.8357
▁uprising	-10.8357
▁かなり	-10.8357
▁最古	-10.8359
▁raw	-10.8362
▁恒	-10.8366
▁repeated	-10.8374
▁Naidaijin	-10.8376
▁weight	-10.8378
壁	-10.8381
▁soul	-10.8386
▁いく	-10.8393
▁屋根	-10.8395
▁老中	-10.8395
担	-10.8399
▁IMA	-10.8402
▁ケ	-10.8402
reki	-10.8403
クラ	-10.8403
▁あげ	-10.8407
▁式部	-10.8408
▁ink	-10.8409
▁Jushiinoge	-10.8411
▁attention	-10.8411
▁刻	-10.8411
▁卒業	-10.8411
▁寝	-10.8412
▁錦	-10.8417
nishi	-10.8421
▁governors	-10.8426
▁pen	-10.8426
▁Christian	-10.8428
互	-10.8429
▁歴代	-10.8429
▁宇多	-10.8429
ディ	-10.843
▁蓮	-10.843
▁空海	-10.8431
▁1884	-10.8435
貞	-10.8435
四郎	-10.8436
▁弱	-10.8437
▁Oku	-10.8438
▁card	-10.8443
歴	-10.8444
▁蕎麦	-10.8447
ンド	-10.845
阪	-10.8453
漢	-10.8454
V	-10.8456
多	-10.8459
we	-10.8464
▁alcohol	-10.8465
▁border	-10.8465
▁trust	-10.8465
▁宋	-10.8467
▁協力	-10.8468
▁Fudo	-10.8468
▁circle	-10.8468
▁sumo	-10.8468
▁Konoe	-10.8471
▁め	-10.8472
パ	-10.8472
籠	-10.8474
▁lacquer	-10.8475
▁Daigaku	-10.8475
▁artist	-10.8482
ゲ	-10.8483
▁便	-10.8484
tangibl	-10.8485
▁随	-10.8486
▁永正	-10.8487
▁comic	-10.8489
▁呼び	-10.8489
▁wor	-10.8494
▁Oshu	-10.8494
▁Arts	-10.8496
▁録	-10.8497
澤	-10.85
▁pot	-10.85
▁mis	-10.8501
▁フランス	-10.8501
▁SOGA	-10.8501
▁めぐ	-10.8501
▁develop	-10.8503
ume	-10.8504
▁Hino	-10.8508
▁長者	-10.8513
kado	-10.8517
列	-10.8522
pping	-10.8524
▁rituals	-10.8527
遠	-10.8528
▁boiled	-10.8537
▁ロシア	-10.8537
ill	-10.8539
▁promotion	-10.854
▁invad	-10.8543
▁kokushi	-10.8543
▁清水	-10.8543
▁持ち	-10.8544
▁laws	-10.8546
▁prefecture	-10.8554
▁三重	-10.8554
▁斯波	-10.8555
▁わずか	-10.8555
▁park	-10.8555
▁concurrently	-10.8557
▁easily	-10.8561
▁du	-10.8566
▁playing	-10.8568
▁don	-10.8572
航	-10.8573
▁urban	-10.8573
▁住宅	-10.8574
▁rose	-10.8576
▁treatment	-10.8577
▁continu	-10.8577
▁extremely	-10.8577
NI	-10.8578
tsuji	-10.8578
▁Miko	-10.8579
▁symbol	-10.8582
▁つい	-10.8583
▁factor	-10.8587
▁believe	-10.8589
ade	-10.8589
▁Tori	-10.859
▁abandon	-10.8592
▁executed	-10.8592
▁1907	-10.8595
▁道具	-10.8597
▁掛け	-10.8604
鼓	-10.8609
▁retreat	-10.861
▁talent	-10.861
▁cold	-10.8611
▁roll	-10.8613
店	-10.8617
▁towards	-10.8619
幕	-10.8621
句	-10.8623
▁Hoku	-10.8626
▁Ito	-10.8628
▁bill	-10.8629
▁世襲	-10.863
替え	-10.8631
▁Zu	-10.8632
封	-10.8632
▁rights	-10.8632
▁realiz	-10.8635
▁Kinai	-10.8636
▁忍	-10.8637
報	-10.8638
▁Saigo	-10.864
▁曼荼羅	-10.8646
▁髪	-10.8648
▁競	-10.8649
▁cake	-10.8651
uma	-10.8651
▁重ね	-10.8652
ite	-10.8653
▁銃	-10.8653
zushi	-10.8653
▁codes	-10.8656
抜	-10.8658
Ka	-10.8662
▁我	-10.8664
▁MIYOSHI	-10.8665
▁peerage	-10.8665
▁貨幣	-10.8665
▁危	-10.8666
▁キリス	-10.8666
▁浅野	-10.8666
▁奥州	-10.8667
▁交流	-10.8668
▁極め	-10.867
▁kyo	-10.8672
▁cooked	-10.8675
▁Shaka	-10.8678
▁Kokin	-10.8678
▁plate	-10.8681
▁domestic	-10.8683
▁architecture	-10.8683
▁稲荷	-10.8683
▁山名	-10.8688
▁contents	-10.8689
▁decline	-10.8695
▁立ち	-10.8696
▁us	-10.8697
▁ships	-10.87
▁NHK	-10.8702
▁professor	-10.8702
▁テレビ	-10.8702
▁North	-10.8702
▁創設	-10.8702
▁報告	-10.8702
▁Poetry	-10.8702
dama	-10.8702
▁Warr	-10.8702
▁大石	-10.8702
▁43	-10.8702
▁因	-10.8703
▁exil	-10.8703
▁prohibited	-10.8704
▁Masamune	-10.8705
▁責	-10.8706
iri	-10.8708
▁pictures	-10.8709
▁Shinran	-10.8709
▁ワ	-10.871
▁徴	-10.8713
▁negotiation	-10.8714
骨	-10.8715
▁owner	-10.8716
▁anecdote	-10.872
▁目指	-10.8721
▁Uda	-10.8727
セ	-10.873
▁relatively	-10.8735
zaburo	-10.8738
▁ICHIKAWA	-10.8738
▁桓武	-10.8738
まざま	-10.8738
▁安倍	-10.8739
▁若狭	-10.8739
▁天神	-10.874
▁1931	-10.8741
▁Rai	-10.8742
▁西園	-10.8742
▁reward	-10.8743
奏	-10.8749
act	-10.8752
薬	-10.8753
▁法人	-10.8753
謡	-10.8757
▁建造	-10.876
▁try	-10.8761
war	-10.8763
浜	-10.8763
▁arm	-10.8765
詮	-10.8776
▁騒動	-10.8776
▁坐像	-10.8776
▁effective	-10.8777
▁1960	-10.8779
▁大仏	-10.8779
▁hit	-10.8781
▁国鉄	-10.8782
ving	-10.8783
銅	-10.8792
測	-10.8793
▁Modern	-10.8794
▁declar	-10.8794
▁permitted	-10.8794
▁運営	-10.8795
▁落語	-10.8795
▁辞任	-10.8796
▁五十	-10.8796
▁cities	-10.8797
▁Yoko	-10.8801
▁竜	-10.8804
▁za	-10.8804
▁天王	-10.8806
▁distribut	-10.8809
幡	-10.8811
sawa	-10.8811
▁額	-10.8812
▁mixed	-10.8813
▁韓国	-10.8813
▁駿河	-10.8813
▁推測	-10.8813
▁TV	-10.8814
▁方針	-10.8814
▁adopt	-10.8814
▁bath	-10.8816
▁1987	-10.8816
▁説明	-10.8818
▁Ako	-10.8818
▁Son	-10.8819
▁Okimi	-10.882
▁dan	-10.882
▁protection	-10.8822
▁写	-10.8822
▁Mura	-10.8828
▁reorganiz	-10.8831
▁嵐山	-10.8831
▁affect	-10.8832
▁Spring	-10.8832
▁伊豆	-10.8832
▁dry	-10.8832
▁Nagaoka	-10.8836
▁減	-10.8839
monin	-10.8842
絵	-10.8847
▁側近	-10.8851
▁Lake	-10.8854
thology	-10.8857
▁幽	-10.8858
WARA	-10.8858
cut	-10.8858
▁1180	-10.8861
drew	-10.8862
▁勇	-10.8863
▁郎	-10.8866
殊	-10.8867
走	-10.8868
▁labor	-10.8869
膳	-10.8869
▁pursu	-10.8869
▁Two	-10.887
istic	-10.887
▁arms	-10.8871
▁植	-10.8872
▁税	-10.8876
飯	-10.8885
順	-10.8886
▁Shonii	-10.8888
▁復帰	-10.8888
▁発達	-10.889
▁1881	-10.8894
▁三浦	-10.8895
▁42	-10.8897
matsuri	-10.8899
転	-10.8905
▁step	-10.8906
▁SAIONJI	-10.8906
ries	-10.8907
▁広ま	-10.8909
RA	-10.891
▁fled	-10.891
▁Koga	-10.8912
▁越	-10.8915
▁practic	-10.8916
こと	-10.8917
▁Okura	-10.8924
宿	-10.8924
▁doctrine	-10.8925
▁university	-10.8926
▁科学	-10.8929
▁併	-10.8929
▁床	-10.8932
▁Sakone	-10.8937
ぞ	-10.8941
▁去	-10.8941
災	-10.8943
訴	-10.8944
タン	-10.8944
▁ダ	-10.8945
▁垂	-10.8947
▁穴	-10.8947
▁事情	-10.8949
▁cast	-10.8953
▁書き	-10.8955
▁Chiba	-10.8956
▁Hiko	-10.8963
▁妖怪	-10.8963
▁copy	-10.8963
▁勲	-10.8964
tate	-10.8965
▁賢	-10.8967
▁matters	-10.8972
▁edition	-10.8976
▁ri	-10.8978
didn	-10.8978
▁entry	-10.8982
毛	-10.8982
▁処分	-10.8983
▁400	-10.8984
bugyo	-10.8984
kusa	-10.8991
▁餅	-10.8999
▁主人	-10.9
▁薬師	-10.9001
▁anniversar	-10.9001
▁significant	-10.9001
▁camp	-10.9002
▁paste	-10.9008
▁die	-10.9016
▁retained	-10.9019
レー	-10.9019
▁stock	-10.902
▁Tohoku	-10.902
▁normal	-10.902
▁Ishikawa	-10.9021
▁朝倉	-10.9024
▁ill	-10.9031
▁cost	-10.9033
▁テ	-10.9034
▁陰	-10.9035
▁長官	-10.9036
▁上方	-10.9037
▁序	-10.9038
▁medicine	-10.9039
▁富士	-10.9041
▁Foreign	-10.9058
▁aspect	-10.9058
▁前田	-10.9058
▁Shimotsuke	-10.9058
▁確	-10.9059
shitsu	-10.9059
▁位階	-10.906
▁drawing	-10.9062
▁announced	-10.9062
▁Haya	-10.9063
▁tan	-10.9071
▁儒	-10.9071
▁費	-10.9071
▁笠	-10.9072
ャ	-10.9074
▁Kichi	-10.9076
▁Military	-10.9077
▁混乱	-10.9077
▁配置	-10.9078
渡	-10.9078
▁絵画	-10.9079
▁collective	-10.908
▁諸説	-10.9082
▁metal	-10.9085
▁relative	-10.9088
▁管	-10.9088
▁enshrine	-10.9095
▁lack	-10.9098
▁Maki	-10.9107
▁powder	-10.911
▁buses	-10.9114
▁teaching	-10.9115
▁copper	-10.9115
▁cloister	-10.9116
▁split	-10.9116
▁Masakado	-10.9117
肉	-10.9118
▁1910	-10.912
▁attract	-10.912
▁書院	-10.9132
ient	-10.9133
▁kara	-10.9133
▁Asia	-10.9133
▁Subway	-10.9135
▁45	-10.9136
ping	-10.9137
▁poor	-10.9138
▁家系	-10.9138
▁照	-10.9141
hood	-10.9148
tte	-10.915
▁Ashi	-10.9153
▁messenger	-10.9154
▁於	-10.9154
▁降伏	-10.9154
▁celebrat	-10.9156
▁海外	-10.9158
▁大宝	-10.9158
素	-10.9158
▁其	-10.9159
▁網	-10.9159
邸	-10.9159
▁Tadayoshi	-10.9165
▁輝	-10.9167
録	-10.9169
▁壬申	-10.9173
婿	-10.9173
▁北部	-10.9173
策	-10.9174
▁strengthen	-10.9175
射	-10.9179
▁雄	-10.9185
▁reviv	-10.9188
崩	-10.9193
▁謀反	-10.9193
▁前方	-10.9193
ェ	-10.9195
▁Po	-10.9196
▁Tomi	-10.9206
▁争	-10.9206
tant	-10.9207
▁rare	-10.9207
▁援	-10.9209
載	-10.921
▁walls	-10.9211
▁bushi	-10.9211
マン	-10.9212
▁鞍馬	-10.9212
▁警察	-10.9212
▁撤	-10.9212
▁放送	-10.9213
▁タイ	-10.9215
▁clothing	-10.9216
qua	-10.9216
▁instrument	-10.9217
▁李	-10.9217
管	-10.9218
▁1876	-10.9219
▁grandchild	-10.9224
sumi	-10.9225
▁大路	-10.9225
▁nu	-10.923
▁Soga	-10.923
▁pick	-10.9231
▁hatamoto	-10.9231
▁Kana	-10.9232
▁community	-10.9235
▁年度	-10.9237
▁泉	-10.9238
▁嫁	-10.9243
▁人口	-10.9248
▁punish	-10.925
▁生き	-10.9251
▁兼ね	-10.9254
▁drink	-10.9254
▁Kanze	-10.9256
洞	-10.9257
▁1862	-10.9258
▁1877	-10.9258
▁増え	-10.926
▁陽	-10.9262
▁Miyoshi	-10.9263
ライ	-10.9265
▁shooting	-10.9269
▁portion	-10.9271
▁原則	-10.9272
▁Kozuke	-10.9274
au	-10.9274
▁乙	-10.9277
SE	-10.9281
▁Lu	-10.9283
▁operations	-10.9287
▁treasures	-10.9288
▁decree	-10.929
▁小笠原	-10.929
▁brewer	-10.929
▁reference	-10.9292
請	-10.9296
ily	-10.9304
▁operat	-10.9305
リア	-10.9309
▁beauty	-10.9309
▁earlier	-10.9309
▁fief	-10.9309
▁conquer	-10.931
▁introduction	-10.931
▁逸話	-10.931
▁羅	-10.9311
▁prefectures	-10.9311
▁聖徳	-10.9313
▁東寺	-10.9323
▁fine	-10.9327
▁Hito	-10.9328
▁算	-10.9328
▁identified	-10.9329
▁internal	-10.9329
▁Murasaki	-10.933
▁Sanuki	-10.933
んじ	-10.9331
▁Saka	-10.9334
規	-10.9337
▁Diet	-10.9339
▁action	-10.9346
紋	-10.9349
▁侵攻	-10.9349
▁祭祀	-10.9349
▁nor	-10.935
▁preach	-10.935
▁項	-10.9352
▁feeling	-10.9353
hose	-10.9362
▁堅	-10.9364
▁villa	-10.9366
zaka	-10.9368
▁もう	-10.9368
▁evidence	-10.9368
▁root	-10.9368
▁victor	-10.9368
▁つなが	-10.9369
Eastern	-10.9369
▁Shichi	-10.9372
▁五条	-10.9372
▁treaty	-10.9374
▁corresponding	-10.9375
修	-10.9376
▁Confucianism	-10.9377
▁damage	-10.9378
▁defense	-10.9379
華族	-10.9379
script	-10.938
福島	-10.9385
▁invasion	-10.9388
▁mirror	-10.9388
▁皇太后	-10.9388
▁Samurai	-10.9388
▁recover	-10.9388
▁増加	-10.9389
▁Shima	-10.9389
▁太鼓	-10.9389
▁近藤	-10.939
▁Wakayama	-10.9392
小	-10.9396
病	-10.9397
▁棟	-10.9398
とめ	-10.9399
▁wo	-10.9403
▁公方	-10.9405
ョ	-10.9408
毒	-10.9408
▁kata	-10.9414
節	-10.9415
▁Councilor	-10.9417
▁graduat	-10.9426
▁Sung	-10.9427
篠	-10.9428
▁Atago	-10.9428
▁演奏	-10.9428
▁宝暦	-10.943
▁義仲	-10.943
総	-10.9432
▁波	-10.9437
▁Seii	-10.9438
▁人形	-10.9438
▁SA	-10.9441
ユ	-10.9448
▁petition	-10.9448
▁Rokuhara	-10.9449
ize	-10.9449
▁宗派	-10.9455
陵	-10.9455
空	-10.9458
▁Sakura	-10.9458
▁執	-10.9464
▁leg	-10.9465
▁gen	-10.9465
▁SHIBA	-10.9467
▁quick	-10.9467
▁Kira	-10.9467
bito	-10.9471
▁excavat	-10.9476
庫	-10.9484
租	-10.9487
▁coast	-10.9487
▁phrase	-10.9487
▁royal	-10.9487
▁根拠	-10.9488
▁甥	-10.949
▁向	-10.949
▁亀山	-10.9492
AN	-10.9495
負	-10.9499
▁黒田	-10.9501
▁betto	-10.9503
縮	-10.9507
▁箇所	-10.9507
▁意識	-10.9508
kushi	-10.9509
▁抱	-10.9513
▁称号	-10.9514
▁source	-10.9515
龍	-10.9519
▁You	-10.952
▁Akita	-10.9523
怒	-10.9527
▁Dowager	-10.9527
▁Library	-10.9527
▁Mirror	-10.9527
▁ceremonial	-10.9527
▁prefectural	-10.9527
媛	-10.9527
▁静岡	-10.9528
▁こそ	-10.9529
▁形状	-10.9529
▁そば	-10.953
▁Bai	-10.9532
▁法律	-10.9532
▁綾	-10.9539
▁daibu	-10.9541
▁毛	-10.9546
▁element	-10.9546
lan	-10.9547
▁biological	-10.9547
▁wealth	-10.9547
▁fee	-10.9548
▁characteristics	-10.9551
▁高速	-10.9553
▁merchant	-10.9555
▁Onin	-10.9558
▁法名	-10.956
▁relatives	-10.9564
▁compet	-10.9567
▁Central	-10.9567
▁repair	-10.9567
▁菩提	-10.9567
▁probab	-10.9568
▁寿司	-10.9569
▁還	-10.9571
▁ラ	-10.9573
▁Mizu	-10.9574
▁Age	-10.9576
仲	-10.9579
▁本能	-10.958
声	-10.9581
砂	-10.9581
▁きょう	-10.9582
ima	-10.9585
▁differ	-10.9586
▁save	-10.9587
▁contrast	-10.9588
▁著名	-10.9594
▁Jinshin	-10.9594
ip	-10.9594
▁movie	-10.9596
▁bean	-10.9597
▁洛	-10.9598
鏡	-10.9599
俗	-10.9599
難	-10.9601
▁nephew	-10.9608
▁reveal	-10.9608
▁左近衛	-10.9608
▁絵巻	-10.9609
▁forms	-10.9609
pan	-10.9611
▁Si	-10.9617
▁stones	-10.962
.5	-10.9621
粉	-10.9622
ible	-10.9625
▁うどん	-10.9628
五郎	-10.963
侍	-10.9637
boku	-10.9637
▁星	-10.9639
▁織	-10.9639
▁Chiku	-10.964
NR	-10.9641
ード	-10.9646
▁TAKE	-10.9648
託	-10.9648
▁revised	-10.9648
▁Chin	-10.9656
▁昼	-10.9656
▁掛	-10.9658
meter	-10.9658
▁Omiya	-10.9658
year	-10.9663
▁鳴	-10.9663
筒	-10.9668
▁System	-10.9668
▁divine	-10.9668
▁junior	-10.9668
▁Director	-10.9669
▁文庫	-10.967
▁bugyo	-10.9671
▁roles	-10.9671
▁出羽	-10.9671
▁田中	-10.9676
▁決め	-10.9676
▁刺	-10.968
▁買	-10.9685
▁heavy	-10.9689
▁inscription	-10.9689
▁chamber	-10.9689
▁切腹	-10.9689
▁block	-10.969
▁席	-10.969
▁influenc	-10.9691
▁Ota	-10.9702
俊	-10.9704
▁districts	-10.9706
黒	-10.9706
闘	-10.9708
▁rise	-10.9708
▁opinions	-10.9708
▁Moku	-10.9709
▁Esoteric	-10.9709
均	-10.9709
括	-10.9709
阜	-10.9709
▁逃げ	-10.9709
▁1949	-10.9712
▁転任	-10.9712
同	-10.9714
▁receiv	-10.9715
▁powers	-10.9716
▁陸	-10.9716
ara	-10.972
▁worshipp	-10.9721
▁漁	-10.9722
▁本格	-10.9724
work	-10.9725
▁一切	-10.9729
▁Manyoshu	-10.973
▁slightly	-10.973
▁superior	-10.973
▁broad	-10.973
▁利休	-10.973
▁正平	-10.9732
▁1999	-10.9732
▁誓	-10.9735
▁氏族	-10.9738
▁告	-10.9743
益	-10.9746
坊	-10.9746
▁poets	-10.9747
荘	-10.9748
恩	-10.9749
cul	-10.975
▁Properties	-10.975
▁focus	-10.975
▁ドラマ	-10.975
▁Another	-10.975
▁enlightenment	-10.975
▁戦闘	-10.9751
▁Kameyama	-10.9751
▁用語	-10.9753
▁Navy	-10.9754
wo	-10.9755
▁丁	-10.9756
▁延長	-10.9757
▁づけ	-10.976
▁writer	-10.9765
▁performances	-10.9767
HIRA	-10.9768
候	-10.9769
脈	-10.977
▁1918	-10.9775
▁桐	-10.9776
cm	-10.9778
▁Of	-10.9778
▁催	-10.9779
範	-10.9787
▁義昭	-10.9793
▁1929	-10.9794
▁能楽	-10.9794
▁Gifu	-10.9797
▁edit	-10.9803
ists	-10.9803
ピ	-10.9809
▁outer	-10.9811
iki	-10.9811
縄	-10.9811
▁恐れ	-10.9812
笑	-10.9812
▁alliance	-10.9812
▁check	-10.9812
▁duty	-10.9812
▁burned	-10.9814
▁Or	-10.9814
▁洗	-10.9817
▁41	-10.9824
▁escape	-10.9828
▁赴	-10.9832
整	-10.9832
▁approach	-10.9832
▁taishogun	-10.9832
泊	-10.9832
▁執権	-10.9833
7	-10.9833
▁safe	-10.9834
▁sell	-10.9842
▁和歌山	-10.9842
▁衝	-10.9847
老	-10.9849
唱	-10.9853
陀	-10.9853
▁geisha	-10.9853
▁medical	-10.9853
▁段階	-10.9853
▁tracks	-10.9855
▁1911	-10.9857
▁将門	-10.9857
▁酒造	-10.9858
▁1895	-10.986
▁石山	-10.9861
▁India	-10.9864
▁探	-10.9864
▁させ	-10.9867
▁Shizuoka	-10.9874
▁Dutch	-10.9874
▁correct	-10.9874
▁Series	-10.9874
▁失敗	-10.9874
▁nothing	-10.9876
▁dates	-10.9878
▁磐	-10.9882
▁Sagami	-10.9886
▁Though	-10.9887
率	-10.9894
幅	-10.9894
▁episode	-10.9894
▁response	-10.9894
麦	-10.9894
▁Teru	-10.99
▁Ouchi	-10.9909
▁verse	-10.991
▁刑	-10.9915
浪	-10.9915
▁備え	-10.9915
▁grounds	-10.9916
▁Bizen	-10.9917
▁1996	-10.9918
▁Ishiyama	-10.9918
▁政務	-10.9922
▁Dis	-10.9926
▁Song	-10.993
童	-10.9936
▁constable	-10.9936
▁reflect	-10.9936
窓	-10.9936
▁SHIMAZU	-10.9936
亭	-10.9936
hand	-10.9939
▁攘	-10.9942
つか	-10.9944
▁joint	-10.9948
▁准	-10.9949
▁あたり	-10.9949
▁造り	-10.995
▁削	-10.9952
▁Mar	-10.9954
▁stands	-10.9954
▁1900	-10.9954
▁諱	-10.9954
▁浦	-10.9955
▁occupie	-10.9957
▁基礎	-10.9957
▁征伐	-10.9958
▁Nakamaro	-10.9959
▁まとめ	-10.996
▁1875	-10.9964
▁審	-10.9966
ーン	-10.9971
▁cit	-10.9975
▁hakase	-10.9978
▁health	-10.9978
ification	-10.9979
▁仏像	-10.9981
▁経典	-10.9984
▁重臣	-10.9986
▁塗	-10.9986
KAMI	-10.9987
▁しも	-10.9989
▁淳	-10.9994
▁overthrow	-10.9999
▁Jingu	-11.0001
▁どの	-11.0001
▁musical	-11.0003
▁せい	-11.0006
▁1882	-11.0007
▁芳	-11.0009
▁stores	-11.001
▁skill	-11.0011
▁北朝	-11.0013
▁中山	-11.0014
▁とう	-11.0018
嶋	-11.002
▁nickname	-11.002
▁みな	-11.002
dani	-11.0021
▁寄進	-11.0021
▁実現	-11.0022
▁Oama	-11.0023
▁所属	-11.0025
▁flow	-11.0026
▁mint	-11.0027
qu	-11.003
▁translation	-11.0034
▁ヤマト	-11.0041
▁bear	-11.0041
▁Hashi	-11.0043
▁Bon	-11.0044
編	-11.0045
▁path	-11.0045
▁1185	-11.0055
▁温	-11.0055
zawa	-11.0059
問	-11.0061
迎	-11.0062
▁draft	-11.0062
▁留学	-11.0062
▁haiku	-11.0062
▁―	-11.0063
▁Chugu	-11.0063
ゆ	-11.0064
pei	-11.0064
▁historic	-11.0065
▁1989	-11.0065
▁Takakura	-11.0068
▁嫌	-11.007
▁ゴ	-11.0074
▁population	-11.0083
▁叔父	-11.0083
▁効果	-11.0083
▁浅井	-11.0084
▁滝	-11.0087
▁惣	-11.0091
▁即	-11.01
表	-11.0102
hata	-11.0103
▁三成	-11.0104
▁Kiku	-11.0104
▁loyal	-11.0104
▁要素	-11.0105
▁産業	-11.0106
▁1993	-11.0107
▁edge	-11.0107
▁反乱	-11.0107
▁FUJI	-11.0107
▁Junii	-11.0108
似	-11.0108
▁古典	-11.0109
kkan	-11.0111
▁ONO	-11.0111
▁始	-11.0113
▁振	-11.0114
▁Heijo	-11.0114
▁instruments	-11.012
▁Biwa	-11.0125
▁肥	-11.0125
弦	-11.0125
快	-11.0125
欲	-11.0125
畑	-11.0125
虫	-11.0125
▁愛宕	-11.0125
▁縁起	-11.0126
▁北陸	-11.0126
▁皇帝	-11.0126
▁Michizane	-11.0127
▁create	-11.0129
▁largest	-11.0131
▁rites	-11.0134
▁作業	-11.0136
▁platforms	-11.0137
▁閏	-11.0137
▁小倉	-11.0139
▁content	-11.014
una	-11.0145
▁Wooden	-11.0147
索	-11.0147
▁gift	-11.0147
▁議	-11.0147
▁Gotoba	-11.0148
abi	-11.0148
▁Yamaguchi	-11.0149
▁坂本	-11.015
歩	-11.0151
▁1874	-11.0156
▁numbers	-11.0157
▁meal	-11.016
▁文治	-11.0161
specially	-11.0162
▁亡	-11.0163
zuke	-11.0164
▁Shiro	-11.0165
▁showing	-11.0165
▁surrounded	-11.0168
▁支援	-11.0169
▁watch	-11.0169
▁YOSHIDA	-11.0169
▁1926	-11.0171
強	-11.0173
▁納め	-11.0173
new	-11.0177
▁祭り	-11.0177
lock	-11.0181
▁table	-11.0182
▁44	-11.0189
▁独特	-11.0189
▁発掘	-11.019
▁東宮	-11.019
▁補任	-11.0192
▁内裏	-11.0192
▁1998	-11.0192
▁嘉永	-11.0193
▁予定	-11.0193
▁ばかり	-11.0194
▁五郎	-11.02
▁Taiho	-11.0202
▁やま	-11.0207
弁	-11.0207
▁Asahi	-11.0208
帥	-11.0211
▁概念	-11.0211
▁YAMANA	-11.0212
▁本文	-11.0213
▁foreigners	-11.0216
▁忌	-11.0216
pro	-11.0216
Momoyama	-11.0217
▁瓦	-11.0219
▁resid	-11.022
▁胤	-11.0221
▁踏	-11.0222
ント	-11.0226
盟	-11.0229
▁fabric	-11.0232
▁ヨーロッパ	-11.0232
▁委員	-11.0233
▁楽器	-11.0234
無	-11.0237
▁福井	-11.0237
散	-11.0238
kari	-11.024
▁Yoshimune	-11.024
▁Okinawa	-11.024
▁meet	-11.0241
▁Kamigyo	-11.0244
▁Four	-11.025
▁warr	-11.025
▁interpret	-11.0251
▁Garden	-11.0254
▁Juichii	-11.0254
▁Matters	-11.0254
▁勤め	-11.0254
▁arrangement	-11.0254
▁1946	-11.0256
フィ	-11.0258
▁重視	-11.0258
▁女王	-11.026
▁昔	-11.0265
▁Amaterasu	-11.0275
▁commercial	-11.0275
▁science	-11.0275
▁仮名	-11.0279
▁建久	-11.028
tta	-11.0292
▁国造	-11.0293
▁ぞ	-11.0297
寧	-11.0297
棄	-11.0297
▁Silla	-11.0297
▁郵	-11.0297
▁miso	-11.0299
▁医学	-11.0299
▁権限	-11.0299
▁1947	-11.03
▁host	-11.0302
▁対抗	-11.0303
shita	-11.0305
訳	-11.0305
運	-11.0305
▁下向	-11.0305
tatsu	-11.031
▁parties	-11.0316
ric	-11.0318
▁Rebellion	-11.0319
▁degree	-11.0319
▁corner	-11.0319
▁settlement	-11.0319
▁難波	-11.0319
▁女御	-11.032
容	-11.0323
▁朝臣	-11.0323
放	-11.0327
ead	-11.0331
▁deeply	-11.0335
浴	-11.034
▁INOUE	-11.034
▁privilege	-11.034
潮	-11.034
▁相撲	-11.034
▁Vi	-11.034
▁Theater	-11.034
▁pine	-11.0342
▁分か	-11.0343
▁relations	-11.0346
▁1885	-11.0348
▁封	-11.0348
▁sand	-11.0359
▁intended	-11.0362
▁右近衛	-11.0362
▁guards	-11.0363
▁乗車	-11.0363
▁工業	-11.0364
TANI	-11.0366
▁Kizu	-11.0371
虎	-11.0372
▁residents	-11.0373
▁Sato	-11.0374
▁ずる	-11.0374
▁YOSHI	-11.0383
▁系譜	-11.0385
ita	-11.0385
▁たとえ	-11.0387
▁Hama	-11.039
don	-11.039
郡	-11.0394
▁bun	-11.0394
▁star	-11.0396
jiki	-11.0401
▁rever	-11.0403
イス	-11.0405
▁Kofun	-11.0406
滅ぼ	-11.0407
▁威	-11.0407
▁史跡	-11.0407
▁HO	-11.0408
▁明王	-11.0415
▁Rokujo	-11.0416
ザ	-11.0416
▁秋田	-11.0418
▁ruler	-11.042
▁Inari	-11.0427
▁acquir	-11.0428
▁ふじわ	-11.0428
▁flat	-11.0428
▁Engishiki	-11.0428
▁rich	-11.0429
▁Arashiyama	-11.0431
▁reduced	-11.0431
rap	-11.0433
起	-11.0435
▁下車	-11.0439
ンス	-11.044
▁Gin	-11.0443
ory	-11.0446
▁ビ	-11.0449
▁Hokuriku	-11.0449
▁earn	-11.0449
▁プロ	-11.0449
▁楠	-11.045
▁住職	-11.0451
▁双	-11.0453
▁山崎	-11.0454
iden	-11.0454
▁Ukone	-11.0457
▁mention	-11.0457
▁Refer	-11.0458
雅	-11.0461
評	-11.0461
ative	-11.0464
▁sections	-11.0468
▁暴	-11.047
荷	-11.0471
乳	-11.0471
▁trouble	-11.0471
▁卵	-11.0472
▁shift	-11.0472
▁sites	-11.0473
▁秀忠	-11.0474
▁Kitano	-11.0477
▁1886	-11.0479
tetsu	-11.0481
BO	-11.0481
motsu	-11.0485
▁revolt	-11.0493
▁shamisen	-11.0493
魔	-11.0493
▁cousin	-11.0493
▁Hyaku	-11.0494
▁芸能	-11.0495
▁定着	-11.0497
▁39	-11.0497
池	-11.0502
練	-11.0504
▁思い	-11.051
▁scroll	-11.0511
揚	-11.0515
▁faith	-11.0515
▁Special	-11.0516
▁巻き	-11.0519
▁120	-11.0521
▁Tsuki	-11.0523
▁relation	-11.0526
雑	-11.0529
筋	-11.0529
旬	-11.0534
bas	-11.0536
▁bureaucrat	-11.0538
▁chamberlain	-11.0538
▁exclud	-11.0538
▁traffic	-11.0538
▁おこな	-11.0538
▁bird	-11.0538
▁Ezo	-11.0539
▁Hyo	-11.0539
▁Pass	-11.0539
▁技法	-11.0539
▁券	-11.0547
▁rate	-11.0547
区	-11.0548
減	-11.0551
rself	-11.0553
▁characteristic	-11.0557
楼	-11.056
▁基準	-11.0561
▁儀	-11.0562
▁stoo	-11.0562
▁secretary	-11.0562
bori	-11.0564
▁Koshi	-11.0567
▁サン	-11.0567
▁ネ	-11.0577
▁須	-11.0579
▁Yoshiie	-11.0579
▁Treaty	-11.0582
▁progress	-11.0582
▁thereafter	-11.0582
GUCHI	-11.0582
▁経緯	-11.0583
▁糸	-11.0585
▁1920	-11.0586
▁書道	-11.0586
▁Shrines	-11.0586
▁exhibition	-11.0592
▁learn	-11.0594
許	-11.0596
読	-11.0597
▁Hogen	-11.0598
ft	-11.0599
まで	-11.0602
穀	-11.0604
▁則	-11.0606
▁河原	-11.0608
▁daily	-11.0608
▁sentence	-11.061
▁Such	-11.0612
捕	-11.0619
▁辺	-11.0624
▁captain	-11.0627
▁exclusive	-11.0627
▁Port	-11.0627
▁長野	-11.0628
▁getting	-11.0628
▁山陰	-11.0629
▁襲	-11.0632
▁trip	-11.0632
▁heads	-11.0635
▁62	-11.0637
▁寒	-11.0641
▁figures	-11.0648
▁象徴	-11.0649
▁rakugo	-11.0649
▁machine	-11.0649
▁reject	-11.065
▁pair	-11.065
▁1995	-11.0652
▁Yoshida	-11.0657
▁ライ	-11.0659
oya	-11.066
かん	-11.0667
識	-11.0669
fect	-11.0671
tsumi	-11.0671
▁Thereafter	-11.0671
▁斎藤	-11.0672
▁Kamigata	-11.0674
▁統合	-11.0674
▁訓	-11.0676
▁ヘ	-11.0676
kubo	-11.0677
▁672	-11.0684
▁もん	-11.0685
▁heart	-11.0689
rui	-11.0694
▁浪士	-11.0694
▁float	-11.0694
▁ざる	-11.0694
▁diplomatic	-11.0694
▁到着	-11.0694
▁Reizei	-11.0694
▁頂	-11.0698
▁砂	-11.0701
▁Ikko	-11.0704
▁shaku	-11.071
▁Masako	-11.071
禅	-11.0711
▁Chronicle	-11.0714
攻	-11.0716
▁opportunit	-11.0716
▁Yoshinori	-11.0716
▁愛知	-11.0718
▁まつ	-11.0719
bumi	-11.0719
▁display	-11.072
▁総督	-11.0721
ake	-11.0722
▁よし	-11.0726
▁customer	-11.0727
▁string	-11.0729
ritsu	-11.073
▁Aichi	-11.073
▁夕	-11.0732
顕	-11.0733
kagami	-11.0736
掌	-11.0738
▁advisor	-11.0739
▁fear	-11.0739
▁Udon	-11.0742
jitsu	-11.0742
▁Koji	-11.0743
ttle	-11.0744
▁親し	-11.0745
▁隣	-11.075
▁たら	-11.0751
かり	-11.0752
muro	-11.0755
眼	-11.0757
▁附	-11.0758
▁uses	-11.076
罰	-11.0761
署	-11.0762
▁expedition	-11.0762
▁fierce	-11.0762
▁Local	-11.0762
▁表示	-11.0763
▁NISHI	-11.0764
▁Kuma	-11.0768
▁roads	-11.077
▁1897	-11.077
▁斬	-11.0776
mission	-11.0777
▁precincts	-11.0777
▁駐	-11.078
った	-11.0783
▁山本	-11.0784
▁Platform	-11.0784
▁policies	-11.0784
▁認識	-11.0784
腕	-11.0784
▁上人	-11.0785
▁1930	-11.0789
▁See	-11.0789
▁colors	-11.0794
▁灯	-11.08
菜	-11.0806
鉢	-11.0807
隅	-11.0807
▁Region	-11.0807
▁装束	-11.0807
▁要請	-11.0808
▁民俗	-11.0808
▁seated	-11.0808
▁1912	-11.0811
▁Ogura	-11.0815
▁北家	-11.0815
なる	-11.082
mata	-11.082
▁Yuan	-11.0821
▁daughters	-11.0821
▁乾	-11.0825
▁600	-11.0829
▁佐々木	-11.083
届	-11.083
▁pull	-11.083
▁範囲	-11.0831
▁共同	-11.0831
▁Yamagata	-11.0831
▁banish	-11.0832
▁emerg	-11.0836
▁変え	-11.0843
▁Togu	-11.0844
ポ	-11.085
珠	-11.085
▁Tosho	-11.0852
▁Confucian	-11.0852
▁困難	-11.0853
▁したが	-11.0853
▁國	-11.0853
▁Iemitsu	-11.0856
type	-11.0857
▁separate	-11.0857
▁了	-11.0857
▁af	-11.0858
▁alive	-11.0859
▁金堂	-11.0861
▁進出	-11.0865
果	-11.0872
首	-11.0873
▁Fukui	-11.0874
▁tourist	-11.0875
▁ICHIJO	-11.0876
▁estimat	-11.0876
潟	-11.0876
▁evening	-11.0879
▁希	-11.0886
ME	-11.0887
wise	-11.0891
鳥羽	-11.0897
▁なし	-11.0897
▁seiz	-11.0898
▁appreciat	-11.0898
▁親鸞	-11.0899
▁展示	-11.0899
▁怪	-11.0899
▁donated	-11.0899
▁前半	-11.0899
▁シテ	-11.09
▁1943	-11.0902
▁役職	-11.0902
▁Honen	-11.0902
▁Tsushima	-11.0903
▁steam	-11.0904
▁lit	-11.0905
▁慣	-11.0907
▁Funa	-11.0908
▁追い	-11.0909
▁祐	-11.091
nyu	-11.091
▁dismissed	-11.0913
▁飾	-11.0915
wan	-11.0918
▁cultivat	-11.0918
▁あと	-11.0918
憲	-11.0919
▁Tenchi	-11.092
▁Asa	-11.0921
▁Following	-11.0921
▁Group	-11.0921
▁width	-11.0921
▁死亡	-11.0922
▁創作	-11.0922
下野	-11.0929
▁tend	-11.0929
▁薩	-11.0931
▁extend	-11.0934
▁council	-11.0938
▁緩	-11.094
▁flute	-11.0944
▁harvest	-11.0944
▁subordinate	-11.0944
▁Shosanmi	-11.0944
▁fortune	-11.0944
▁Lord	-11.0945
▁赤松	-11.0947
▁Lo	-11.0947
▁扱い	-11.0953
▁spa	-11.0955
fic	-11.0957
▁鉱	-11.0962
▁代官	-11.0963
▁袖	-11.0967
電	-11.0967
湯	-11.0967
▁College	-11.0968
励	-11.0968
▁restaurant	-11.0968
▁percent	-11.0968
▁距	-11.0968
▁Kazusa	-11.097
▁decorat	-11.097
nouchi	-11.0972
SAWA	-11.0973
▁features	-11.0973
▁write	-11.0974
▁ichi	-11.0974
▁script	-11.098
▁SEN	-11.0982
▁product	-11.0982
▁念	-11.0986
▁Ii	-11.0986
▁decoration	-11.0987
罪	-11.0989
悲	-11.0991
▁encourage	-11.0991
▁pillar	-11.0991
▁断絶	-11.0991
▁oil	-11.0992
▁Limited	-11.0993
▁Shimazu	-11.0994
詰め	-11.0994
▁1891	-11.1
たび	-11.1001
▁広が	-11.1003
っと	-11.1004
切り	-11.1005
spec	-11.1006
▁commit	-11.1009
▁しい	-11.1013
壺	-11.1014
障	-11.1014
▁AKECHI	-11.1014
▁讃岐	-11.1014
▁convert	-11.1014
葬	-11.1014
▁archery	-11.1014
算	-11.1014
▁幼少	-11.1014
▁旨	-11.1015
▁entertainment	-11.1015
▁嫡流	-11.1016
▁styles	-11.1016
▁隆盛	-11.1017
▁putt	-11.1017
▁Di	-11.1018
▁説話	-11.1019
▁共通	-11.1019
▁Mie	-11.1021
▁かかわ	-11.1025
ana	-11.1026
cle	-11.1029
▁今出川	-11.1037
▁Secretary	-11.1037
就	-11.1039
▁1994	-11.1041
▁茶屋	-11.1046
▁改名	-11.1046
▁1887	-11.1047
▁methods	-11.1056
▁Gosho	-11.1058
▁環境	-11.106
燈	-11.106
▁changing	-11.106
▁Masu	-11.1061
▁shot	-11.1063
▁移動	-11.1065
▁Tetsu	-11.1065
▁側室	-11.1066
▁1896	-11.1067
▁創	-11.1068
▁漆	-11.1082
▁practices	-11.1082
▁possibilit	-11.1084
▁purchas	-11.1084
▁Lady	-11.1084
TOMI	-11.1085
▁player	-11.1085
▁献上	-11.1085
▁直通	-11.1091
▁すぎ	-11.1091
▁紅	-11.1092
▁見解	-11.1093
▁美し	-11.1094
▁ベ	-11.1096
▁crossing	-11.1101
▁expert	-11.1107
▁ピ	-11.111
▁六条	-11.111
▁1988	-11.1111
▁Ru	-11.1111
▁routes	-11.1118
▁horses	-11.1125
▁Sanin	-11.1125
▁plot	-11.1128
〔	-11.1131
▁構え	-11.1131
▁Sessho	-11.1131
▁受領	-11.1132
序	-11.1132
tail	-11.1142
▁Nagano	-11.1147
ゅ	-11.1147
下げ	-11.1148
▁平治	-11.1148
▁door	-11.115
詰	-11.1151
▁customs	-11.1151
▁擁立	-11.1154
▁rumor	-11.1154
▁鉄砲	-11.1155
▁政変	-11.1156
▁食品	-11.1156
▁農業	-11.1157
ryaku	-11.1158
▁1899	-11.1163
▁酸	-11.1164
▁Jito	-11.1168
giri	-11.1169
▁leas	-11.1169
▁現地	-11.117
▁悟	-11.117
▁kuge	-11.1174
JIMA	-11.1175
▁撃	-11.1177
▁argu	-11.1177
▁answer	-11.1178
▁criminal	-11.1178
▁doubt	-11.1178
▁Kishu	-11.1178
▁Tottori	-11.1178
▁Murakami	-11.1178
▁工芸	-11.1178
▁調理	-11.1181
▁1925	-11.1181
▁道真	-11.1181
わせ	-11.1182
▁1904	-11.1182
貴	-11.1182
▁10,000	-11.1185
▁抵	-11.1185
▁家庭	-11.1189
▁NAGA	-11.1191
▁知事	-11.1195
▁停	-11.1197
貫	-11.1198
kuma	-11.1199
▁ドイツ	-11.1202
▁醸造	-11.1202
▁Siege	-11.1202
▁譜代	-11.1202
▁確保	-11.1202
▁Nikko	-11.1204
▁Otani	-11.1208
▁1888	-11.121
▁行幸	-11.1212
owned	-11.1213
▁Myoo	-11.1214
▁城下	-11.122
答	-11.1225
▁Headquarters	-11.1225
▁関与	-11.1228
▁澄	-11.1228
▁縦	-11.1229
▁envoys	-11.123
効	-11.1231
▁しゅ	-11.1231
▁pond	-11.1232
▁淡	-11.1233
▁筋	-11.1235
▁桃	-11.1236
▁ages	-11.124
▁倉	-11.1241
▁碑	-11.1241
▁労	-11.1243
▁もち	-11.1244
▁tools	-11.1246
fish	-11.1247
▁ball	-11.1248
▁campaign	-11.1249
▁newspaper	-11.1249
taki	-11.1253
▁ruin	-11.1255
▁popularity	-11.1257
▁柏	-11.1257
▁辛	-11.1261
▁centraliz	-11.1265
▁bottom	-11.1273
▁往生	-11.1273
▁huge	-11.1273
▁Taki	-11.1274
▁interpretation	-11.1276
▁150	-11.1277
▁Makino	-11.1279
廃	-11.1279
▁formerly	-11.1279
▁Historical	-11.1281
▁籠	-11.1284
▁add	-11.1288
date	-11.1293
▁strength	-11.1294
otsu	-11.1294
▁Furu	-11.1296
▁Engi	-11.1296
▁ghost	-11.1297
▁search	-11.1297
▁ob	-11.1298
ao	-11.1299
▁充	-11.1299
▁想	-11.1302
配	-11.1303
▁はず	-11.1304
らい	-11.1307
kun	-11.1315
ase	-11.1315
砲	-11.132
糖	-11.132
▁scriptures	-11.1321
▁snow	-11.1321
▁処刑	-11.1321
▁license	-11.1321
▁消滅	-11.1321
▁&	-11.1322
▁hear	-11.1324
組	-11.1325
▁天満	-11.1327
▁2009	-11.1327
遊	-11.1328
監	-11.1328
▁筑	-11.1333
まれ	-11.1339
▁launch	-11.1345
▁defend	-11.1345
▁SAIGO	-11.1345
▁修理	-11.1347
▁ずつ	-11.1348
参	-11.1351
▁押し	-11.1353
▁うえ	-11.1361
waka	-11.1361
▁Car	-11.1365
▁展	-11.1368
▁magazine	-11.1369
▁temperature	-11.1369
▁議会	-11.1369
▁vegetables	-11.137
合わせ	-11.137
▁益	-11.1373
▁後述	-11.1376
▁好み	-11.1378
誉	-11.1378
▁instruction	-11.138
▁concerned	-11.1381
▁偽	-11.1383
▁54	-11.1386
▁水野	-11.1389
▁Saku	-11.1393
▁但し	-11.1393
▁preparation	-11.1394
▁出仕	-11.1395
▁1905	-11.1397
▁云	-11.1398
▁Tengu	-11.1398
▁平定	-11.1399
▁cor	-11.1405
▁clearly	-11.141
▁Ben	-11.141
▁訴	-11.1414
▁汁	-11.1415
ou	-11.1417
▁agricultural	-11.1417
▁Priest	-11.1417
▁grain	-11.1417
▁Kaoru	-11.1417
▁Kameoka	-11.1417
▁商品	-11.1418
▁漢字	-11.1418
▁まさ	-11.1418
▁mere	-11.1425
▁出陣	-11.1426
▁和田	-11.1426
▁IC	-11.143
まし	-11.1432
貢	-11.144
績	-11.144
謙	-11.1441
▁felt	-11.1441
▁Oni	-11.1441
▁相模	-11.1441
▁停止	-11.1441
▁recit	-11.1441
▁deceased	-11.1442
▁筆頭	-11.1443
▁寵	-11.1444
▁key	-11.1446
▁分家	-11.1448
朱雀	-11.1449
竹	-11.1449
▁Kyogen	-11.1449
ーク	-11.145
▁Nihongi	-11.1452
kashi	-11.1453
▁hill	-11.1456
▁沖	-11.1459
▁heat	-11.146
▁Matsuri	-11.1461
▁fresh	-11.1465
▁屏風	-11.1465
▁株式	-11.1466
▁Horikawa	-11.1466
▁鎮守	-11.1466
▁淀川	-11.1468
▁Kotsu	-11.147
▁僧正	-11.147
▁Kanrei	-11.1472
▁1880	-11.1473
room	-11.1475
▁冊	-11.1476
▁精神	-11.1477
▁虎	-11.1479
レン	-11.148
▁敏	-11.1484
▁午	-11.1485
rate	-11.1486
▁Bodhisattva	-11.149
▁integrated	-11.149
吏	-11.149
▁blue	-11.149
▁失脚	-11.149
▁examination	-11.1491
▁1923	-11.1493
▁navy	-11.1497
▁judge	-11.15
境	-11.1501
▁1183	-11.1503
▁従五	-11.1504
バー	-11.1508
▁長政	-11.1508
▁Kiri	-11.1511
▁transport	-11.1511
▁Subsequent	-11.1514
▁Shio	-11.1514
▁神祇	-11.1516
▁上総	-11.152
▁表面	-11.1521
ゴ	-11.1524
樹	-11.1526
染	-11.1526
▁parents	-11.1531
ub	-11.1535
▁畳	-11.1536
▁Ohara	-11.1536
▁Commander	-11.1538
▁bronze	-11.1538
▁fifty	-11.1538
▁dancing	-11.1538
▁folding	-11.1539
▁1991	-11.1543
gosho	-11.1543
▁本名	-11.1544
UE	-11.1544
▁由	-11.1545
▁合流	-11.1545
pr	-11.1546
▁中華	-11.1551
▁洞	-11.1555
tani	-11.1557
▁reconstruct	-11.1558
獄	-11.156
伸	-11.1563
軸	-11.1563
ブル	-11.1563
▁Nippon	-11.1563
▁rush	-11.1567
▁passing	-11.1567
koshi	-11.1567
▁prior	-11.1568
▁achievement	-11.157
限	-11.1572
▁みや	-11.1575
胤	-11.1576
▁KYOGOKU	-11.1588
▁subjugat	-11.1588
▁伽藍	-11.1588
▁yeast	-11.1588
▁面積	-11.1589
▁Fukushima	-11.159
▁誇	-11.159
▁前身	-11.1598
Pa	-11.1599
GE	-11.1602
3	-11.1605
▁大字	-11.1608
▁experience	-11.161
▁1879	-11.1612
▁Rapid	-11.1612
▁murder	-11.1612
▁residential	-11.1612
▁48	-11.1619
宿禰	-11.162
選	-11.1622
▁Inaba	-11.1623
▁rid	-11.1624
折	-11.1626
▁一番	-11.1627
▁壁	-11.1628
らし	-11.1635
▁程	-11.1636
狩	-11.1637
▁secular	-11.1637
▁Rinzai	-11.1637
▁Sekkan	-11.1638
▁注意	-11.1639
▁1919	-11.1641
▁女房	-11.1643
scribed	-11.1643
ogi	-11.1643
▁上下	-11.1646
atory	-11.1646
tora	-11.1646
▁出兵	-11.1649
▁西国	-11.1651
▁麻	-11.1653
▁views	-11.1658
▁SUGAWARA	-11.1662
駄	-11.1662
▁Lotus	-11.1662
awase	-11.1664
▁eyes	-11.1666
koro	-11.167
▁hours	-11.1676
bility	-11.1677
▁55	-11.1685
蒲	-11.1686
▁Society	-11.1686
▁mouth	-11.1686
▁pilgrimage	-11.1687
▁亀岡	-11.1688
▁禅宗	-11.1688
URA	-11.1689
guri	-11.1691
▁やや	-11.1691
▁疑	-11.1691
▁1878	-11.1696
▁our	-11.1696
▁山内	-11.1699
ほ	-11.1701
秋	-11.1701
▁cat	-11.1706
▁supervis	-11.1708
▁flour	-11.1711
▁備前	-11.1711
▁landscape	-11.1712
▁論争	-11.1712
▁養女	-11.1713
▁1940	-11.1716
▁腰	-11.1716
▁迫	-11.1718
▁Fusa	-11.1728
▁expell	-11.1733
▁Rokkaku	-11.1736
▁emphasiz	-11.1736
▁better	-11.1736
▁加藤	-11.1739
▁著書	-11.1741
ース	-11.1748
▁Kenshin	-11.1749
▁myth	-11.1751
▁understand	-11.1751
▁炭	-11.1756
窮	-11.1761
▁宇都宮	-11.1761
▁検非違使	-11.1761
透	-11.1761
bayashi	-11.1761
▁sick	-11.1761
▁三郎	-11.1762
▁健	-11.1764
▁1927	-11.1765
▁坂上	-11.1765
▁釈	-11.1765
▁setting	-11.1766
▁Sanyo	-11.1771
▁収め	-11.1776
▁Iku	-11.178
▁Momoyama	-11.178
▁祈願	-11.1787
深草	-11.1787
▁横浜	-11.1787
▁居住	-11.1787
▁家光	-11.1788
▁acting	-11.1789
▁1951	-11.179
▁区分	-11.1792
UCHI	-11.1793
しゃ	-11.1795
▁fri	-11.1801
▁Minor	-11.1802
▁神楽	-11.181
▁pupil	-11.1811
盗	-11.1811
▁easy	-11.1811
▁concentrat	-11.1811
▁備中	-11.1812
▁1901	-11.1816
▁OUCHI	-11.1816
▁Ameno	-11.1818
▁強化	-11.1819
▁実子	-11.182
▁Shikoku	-11.1824
ソ	-11.1825
壇	-11.1829
▁大輔	-11.183
繁	-11.183
▁images	-11.1832
▁献	-11.1833
▁平野	-11.1836
寂	-11.1837
篤	-11.1837
▁勧修	-11.1837
▁warm	-11.1838
▁萬	-11.1844
▁符	-11.185
▁Ryoma	-11.1851
▁浅	-11.1852
kuchi	-11.1852
▁西軍	-11.1854
忌	-11.1856
敵	-11.1856
▁集落	-11.1857
▁mochi	-11.1858
▁address	-11.1862
▁欧米	-11.1862
▁agreement	-11.1862
▁Keicho	-11.1863
▁高麗	-11.1866
▁言い	-11.1867
▁1894	-11.1872
▁Abe	-11.1873
▁Kujo	-11.1874
▁督	-11.1876
▁習	-11.1877
▁いち	-11.1878
▁displayed	-11.1883
刊	-11.1887
▁International	-11.1887
▁appeal	-11.1887
▁滞在	-11.1887
▁連絡	-11.1888
▁著作	-11.1891
▁beside	-11.1895
▁役所	-11.1896
▁平等	-11.1897
▁1865	-11.1898
階	-11.19
▁1184	-11.1904
▁FU	-11.1905
▁Russia	-11.1906
防	-11.1907
七	-11.1908
感	-11.1908
昌	-11.1908
訓	-11.1908
▁weak	-11.1911
▁plain	-11.1913
▁装飾	-11.1913
▁徐	-11.1917
▁法令	-11.1919
MU	-11.1919
▁proposal	-11.192
▁devoted	-11.1921
▁injur	-11.1922
▁氷	-11.1926
▁Kado	-11.1928
▁stored	-11.1929
▁decreas	-11.1938
▁behavior	-11.1938
▁文部	-11.1938
▁壬生	-11.1938
▁plum	-11.1938
hold	-11.1939
▁談	-11.194
▁田辺	-11.194
▁Heiji	-11.1944
▁Taku	-11.1946
▁遷	-11.1946
KE	-11.1946
要	-11.1952
まち	-11.1954
set	-11.1954
岐	-11.1958
裁	-11.1958
豪	-11.196
幹	-11.1963
▁沖縄	-11.1964
▁葬儀	-11.1964
▁分割	-11.1964
▁かみ	-11.1965
▁Beside	-11.1965
一郎	-11.1965
▁遭	-11.1965
▁1948	-11.1967
▁moat	-11.1967
▁正三	-11.1972
▁fund	-11.1974
▁家紋	-11.1974
王権	-11.1977
▁Nagato	-11.1978
Z	-11.198
▁Ja	-11.1985
異	-11.1985
▁zo	-11.1989
宴	-11.1989
▁材料	-11.1989
▁臨済	-11.199
▁辞職	-11.199
▁MIYA	-11.1991
▁Imagawa	-11.1992
▁曾	-11.1993
▁政宗	-11.1995
▁あら	-11.1995
▁fare	-11.1996
▁tenth	-11.1997
dayu	-11.1997
▁四国	-11.1998
喜多	-11.2001
わし	-11.2006
澄	-11.2011
▁果	-11.2013
▁HATAKEYAMA	-11.2015
▁OKUBO	-11.2015
棚	-11.2015
▁Prime	-11.2015
▁Both	-11.2016
▁貴重	-11.2016
▁繰り返	-11.2016
▁年貢	-11.2016
▁越え	-11.2019
▁神武	-11.2024
▁無形	-11.2029
▁page	-11.2029
▁Horyu	-11.203
▁準	-11.2032
▁牧	-11.2033
開	-11.2034
奪	-11.2038
▁Branch	-11.204
▁proceed	-11.2041
▁Mai	-11.2041
▁過程	-11.2041
▁Yokohama	-11.2041
▁demot	-11.2041
▁制限	-11.2042
▁安芸	-11.2044
▁1955	-11.2044
rated	-11.2044
▁soft	-11.205
▁lay	-11.2052
▁武者	-11.2053
▁taxi	-11.2054
▁representing	-11.2055
▁47	-11.2057
▁America	-11.2059
▁Tora	-11.206
▁Taisha	-11.2066
▁Disturbance	-11.2066
▁Studio	-11.2066
▁Thousand	-11.2066
▁tribute	-11.2066
▁整理	-11.2066
▁管轄	-11.2066
▁養老	-11.2067
▁arch	-11.2067
▁解説	-11.207
▁下り	-11.2072
ev	-11.2074
▁initially	-11.2076
▁Hata	-11.2082
▁物部	-11.2087
▁educational	-11.2087
▁drinking	-11.2088
絶	-11.209
▁SAITO	-11.2092
▁Statue	-11.2092
▁judici	-11.2092
彫	-11.2092
▁depriv	-11.2092
▁crime	-11.2092
▁試験	-11.2092
▁Niigata	-11.2092
▁opposition	-11.2093
▁せん	-11.2095
▁上演	-11.2096
▁1908	-11.2097
▁Yoshihisa	-11.2098
▁かね	-11.2099
▁Koma	-11.21
▁舟	-11.2101
▁51	-11.2102
▁underst	-11.2104
▁坐	-11.2109
▁正し	-11.2109
▁落と	-11.2113
▁Yamada	-11.2114
▁wr	-11.2117
▁障子	-11.2118
▁写真	-11.2118
▁最近	-11.2119
▁阿波	-11.2119
sode	-11.212
▁1972	-11.2121
▁1944	-11.2121
デ	-11.2123
▁仁和	-11.2124
▁Yoshihiro	-11.2127
▁囲	-11.2129
▁1615	-11.2132
RU	-11.2134
▁幾	-11.2137
▁此	-11.2138
刑	-11.2142
髪	-11.2142
込み	-11.2143
魚	-11.2144
▁Capital	-11.2144
遍	-11.2144
▁味噌	-11.2144
▁thanks	-11.2144
▁combination	-11.2148
▁jun	-11.215
▁Ar	-11.2152
▁Wh	-11.2153
▁神事	-11.2155
▁学者	-11.2168
ボ	-11.2168
▁genealogy	-11.217
▁崩壊	-11.217
▁accomplish	-11.217
▁Oaza	-11.217
▁trend	-11.217
▁探題	-11.217
固	-11.217
▁Mongol	-11.2171
▁火災	-11.2171
▁改易	-11.2172
▁連れ	-11.2172
▁傍	-11.2173
▁comment	-11.2176
▁compilation	-11.2182
▁薫	-11.2183
▁光明	-11.2185
▁rear	-11.2189
▁exception	-11.2191
▁ascetic	-11.2196
▁engrav	-11.2196
▁HORI	-11.2197
注	-11.2197
▁1985	-11.22
▁seek	-11.2204
BU	-11.2207
W	-11.2209
梨	-11.2218
▁abdicat	-11.2219
▁町名	-11.222
▁forth	-11.2222
▁Civil	-11.2222
▁economy	-11.2222
研	-11.2222
▁とおり	-11.2222
▁sovereignty	-11.2223
▁検校	-11.2223
▁開拓	-11.2223
▁鳥居	-11.2224
▁Reform	-11.2224
提	-11.2224
▁Shinsen	-11.2225
街	-11.2226
▁1942	-11.2226
▁branches	-11.2229
▁eel	-11.223
▁あく	-11.223
かし	-11.2231
▁invent	-11.2233
▁founding	-11.2235
▁Hiki	-11.2239
▁tile	-11.224
▁Soto	-11.2241
▁Shomu	-11.2245
▁Yoshimoto	-11.2245
▁Normal	-11.2249
▁Police	-11.2249
▁浄瑠璃	-11.2249
▁impossible	-11.2249
▁Taro	-11.2249
雨	-11.225
じゅう	-11.225
class	-11.225
依	-11.2251
▁使節	-11.2251
▁strip	-11.2254
▁法然	-11.2261
tara	-11.2274
▁Republic	-11.2275
亜	-11.2275
▁受賞	-11.2275
争	-11.2275
uke	-11.2276
▁病死	-11.2276
▁司令	-11.2276
若	-11.2277
才	-11.2277
▁珠	-11.2278
▁alone	-11.228
▁鴨	-11.2281
▁食事	-11.2282
▁槍	-11.2282
▁持統	-11.2285
▁逸	-11.229
▁colored	-11.2292
▁expected	-11.2298
郭	-11.2298
▁reputation	-11.2301
▁supply	-11.2301
▁leaf	-11.2301
▁捕らえ	-11.2301
▁準備	-11.2302
技	-11.2304
▁+	-11.2304
ture	-11.2317
▁作り	-11.2318
▁Ina	-11.2321
▁湾	-11.2325
趣	-11.2328
▁Mandala	-11.2328
▁predecessor	-11.2328
▁狩野	-11.2328
▁criticism	-11.2328
▁襲撃	-11.2328
▁income	-11.2329
▁super	-11.2329
▁organizations	-11.233
▁1986	-11.2331
▁1976	-11.2332
▁瑞	-11.2332
▁引き継	-11.2332
▁鷹	-11.2333
▁皆	-11.2333
▁Okubo	-11.2336
▁Bungo	-11.2339
kita	-11.234
▁Chuo	-11.234
▁handl	-11.234
▁1573	-11.2341
▁腹	-11.2341
ctively	-11.2344
▁confiscat	-11.2354
▁DATE	-11.2354
▁童子	-11.2354
▁判断	-11.2355
▁Board	-11.2355
▁Iwakura	-11.2356
▁chose	-11.2358
焼き	-11.2361
▁助け	-11.2363
▁armor	-11.2364
リン	-11.2365
▁Mibu	-11.2365
▁辻	-11.2368
▁daisho	-11.2371
▁国会	-11.2371
▁雷	-11.2373
▁盆	-11.2375
えん	-11.238
▁accompany	-11.2381
▁monogatari	-11.2381
▁天狗	-11.2381
▁Naniwa	-11.2382
▁御前	-11.2382
▁試み	-11.2383
▁知識	-11.2383
▁緑	-11.2383
駅	-11.2385
▁European	-11.2385
▁Hori	-11.2385
▁hole	-11.2387
▁壇	-11.2388
▁夫人	-11.2389
5	-11.2397
goes	-11.2398
▁servant	-11.2399
▁受け継	-11.2399
▁Tru	-11.2399
▁killing	-11.2407
閑	-11.2407
▁attitude	-11.2407
▁trading	-11.2407
▁ダイヤ	-11.2407
訟	-11.2407
▁entrust	-11.2407
▁finance	-11.2407
ZAWA	-11.2408
▁altar	-11.2408
▁distribution	-11.2412
▁zen	-11.2415
▁側面	-11.2416
▁染	-11.2418
▁Maru	-11.242
▁dat	-11.2421
▁52	-11.2423
▁assist	-11.2424
麗	-11.243
▁spear	-11.2434
▁Baekje	-11.2434
▁処理	-11.2435
▁創立	-11.2435
▁pour	-11.2436
▁passage	-11.2437
▁Tajima	-11.2438
▁1965	-11.2439
▁drive	-11.2439
▁渡来	-11.244
▁trial	-11.244
▁63	-11.2441
▁Kasa	-11.2441
▁劣	-11.2441
▁陶	-11.2442
▁政所	-11.2443
daka	-11.2445
gei	-11.2447
▁Hu	-11.2449
▁coat	-11.2449
▁栗	-11.2454
査	-11.246
▁electric	-11.2461
▁twelve	-11.2461
▁イメージ	-11.2461
稿	-11.2461
▁酵母	-11.2461
▁Literature	-11.2461
羽	-11.2462
▁カレー	-11.2462
▁イン	-11.2462
▁佐賀	-11.2463
▁raise	-11.2466
▁differences	-11.2466
右	-11.2467
労	-11.2468
▁American	-11.2468
▁recently	-11.2472
▁consideration	-11.2474
▁結びつ	-11.2475
tachi	-11.2477
kkai	-11.2483
▁題	-11.2483
▁facing	-11.2488
▁暗	-11.2488
▁英語	-11.249
▁連歌	-11.249
▁植物	-11.249
▁inform	-11.2491
▁御陵	-11.2492
▁大原	-11.2504
▁箏	-11.2505
▁Wi	-11.2506
ベ	-11.2509
鉄	-11.2511
▁rapidly	-11.2513
祥	-11.2513
lla	-11.2514
▁compris	-11.2515
▁収録	-11.2516
▁カード	-11.2516
▁推古	-11.2517
▁cooperation	-11.2518
始	-11.2521
▁previously	-11.2521
▁Vice	-11.2521
▁麹	-11.2525
▁尼子	-11.2527
▁Yoro	-11.2527
nichi	-11.2534
▁Hot	-11.2541
▁opponent	-11.2542
▁漫画	-11.2542
ゼ	-11.2542
允	-11.2542
▁completion	-11.2543
▁上げ	-11.2545
▁製法	-11.2546
準	-11.2549
費	-11.255
▁市場	-11.2552
▁衰	-11.2554
bata	-11.2557
hana	-11.2559
▁ways	-11.2568
▁Hakodate	-11.2569
▁掲げ	-11.2569
▁減少	-11.2569
▁Sado	-11.2569
ZAKI	-11.2569
▁遷都	-11.2569
▁誰	-11.257
▁Expressway	-11.257
▁cutting	-11.2571
▁1969	-11.2573
▁場面	-11.2576
避	-11.2578
▁太夫	-11.2579
掛け	-11.2582
▁付き	-11.2583
▁大乗	-11.2584
▁90	-11.2589
▁dog	-11.259
▁Award	-11.2591
▁いつ	-11.2593
▁オランダ	-11.2596
ニュー	-11.2596
▁competition	-11.2597
▁恩	-11.2598
▁Hyobu	-11.2599
▁moment	-11.2604
豊	-11.2605
突	-11.2606
▁1866	-11.2608
▁概	-11.2609
▁61	-11.2622
▁Jomon	-11.2623
▁commemorat	-11.2623
▁Studies	-11.2623
▁統制	-11.2625
▁Hoki	-11.2626
▁Ueno	-11.2626
▁Tsuru	-11.2628
▁総理	-11.263
向き	-11.263
柳	-11.2633
▁対馬	-11.2635
▁success	-11.2637
▁いた	-11.2638
▁players	-11.2638
gashira	-11.264
▁努	-11.2643
▁specifi	-11.2646
▁北野	-11.2647
▁generat	-11.2647
action	-11.2648
▁Throne	-11.2651
▁centimeter	-11.2651
尹	-11.2651
▁conf	-11.2651
▁邸宅	-11.2651
▁Christianity	-11.2653
▁Sixth	-11.2655
▁不足	-11.2656
▁investigation	-11.2659
▁governmental	-11.2659
掛	-11.266
▁doing	-11.2662
▁Kondo	-11.2664
▁Inter	-11.2665
▁Kazan	-11.2666
▁磯	-11.2669
▁鍋	-11.2671
SAKA	-11.2673
west	-11.2678
▁Mausoleum	-11.2678
▁獲得	-11.2678
廟	-11.2678
▁luck	-11.2678
suki	-11.2678
fumi	-11.268
▁秦	-11.2685
nabe	-11.2688
▁汲	-11.2688
km	-11.2688
▁徹	-11.2694
hatsu	-11.2697
▁France	-11.2706
蓋	-11.2706
▁消費	-11.2706
▁opposite	-11.2706
▁Komyo	-11.2707
▁土岐	-11.2707
▁laid	-11.2707
▁unclear	-11.2708
▁出現	-11.2709
▁釜	-11.2712
bout	-11.2713
英	-11.2718
▁princes	-11.2718
▁規	-11.2719
晴	-11.272
▁tour	-11.2723
▁Naishi	-11.2729
箇	-11.2733
▁MAEDA	-11.2733
▁NIJO	-11.2733
▁逃亡	-11.2733
煙	-11.2733
late	-11.2737
name	-11.2737
▁Tea	-11.274
ぬ	-11.2746
▁Tokai	-11.2753
参詣	-11.2754
▁Pe	-11.276
▁Academy	-11.2761
▁straight	-11.2761
婆	-11.2761
▁speed	-11.2761
▁配流	-11.2765
▁1932	-11.2765
▁骨	-11.2768
▁1333	-11.2773
mark	-11.2775
▁entertain	-11.2787
▁りょう	-11.2788
▁Poems	-11.2788
▁assassinated	-11.2789
▁Nenbutsu	-11.2789
▁儒教	-11.2789
▁administrator	-11.2789
▁総裁	-11.279
▁雅楽	-11.2791
▁Sanetomo	-11.2791
▁入道	-11.2792
▁1902	-11.2793
▁承和	-11.2794
▁鯨	-11.2795
▁Hakata	-11.2796
▁下京	-11.2798
▁興行	-11.2801
雪	-11.2802
Maizuru	-11.2802
▁一向	-11.2803
▁年齢	-11.2808
tsura	-11.2809
▁discontinued	-11.2811
▁Their	-11.2811
▁message	-11.2816
りゅう	-11.2816
▁whale	-11.2817
▁交代	-11.2821
▁notice	-11.2821
af	-11.2822
▁Genroku	-11.2824
▁法隆	-11.2826
▁conflicts	-11.2827
▁陥	-11.2828
敷	-11.2829
▁situat	-11.2834
ベル	-11.2835
bari	-11.2837
▁道場	-11.2837
▁大国	-11.2844
▁46	-11.2844
▁俳優	-11.2844
▁dark	-11.2844
▁祈	-11.2844
▁demonstrat	-11.2844
▁聖武	-11.2845
▁visitors	-11.2848
▁Yomei	-11.285
haya	-11.2854
kkyo	-11.2856
▁法師	-11.2856
▁かわ	-11.2857
▁counter	-11.2857
峰	-11.2859
梅	-11.2859
▁desire	-11.2862
▁confin	-11.2863
▁suit	-11.2865
▁Onmyo	-11.2867
▁Kashiwa	-11.2869
▁gates	-11.2869
▁loved	-11.287
▁overseas	-11.2872
iTa	-11.2872
▁brush	-11.2872
▁豆腐	-11.2872
▁棒	-11.2872
▁袋	-11.2874
▁flourished	-11.2874
▁和服	-11.2875
▁裁	-11.2876
sama	-11.2876
▁Sumiyoshi	-11.2876
▁門下	-11.2879
ちら	-11.2881
▁書物	-11.2881
▁skills	-11.2883
焼	-11.2884
▁75	-11.289
▁少し	-11.2893
▁領国	-11.2894
hiki	-11.2894
▁shosho	-11.2896
▁cooperat	-11.2897
▁Saicho	-11.2899
▁一色	-11.2899
微	-11.29
▁nationwide	-11.29
▁assert	-11.2901
▁hanging	-11.2901
▁promis	-11.2901
▁河原町	-11.2901
▁retirement	-11.2901
▁exile	-11.2902
ushi	-11.2903
▁峯	-11.2909
Mi	-11.2915
敬	-11.2916
戒	-11.2916
▁六波羅	-11.2924
▁蘭	-11.2926
▁亭	-11.2928
▁abolition	-11.2928
▁blade	-11.2928
▁truth	-11.2928
▁Emishi	-11.2928
▁quot	-11.2928
▁後藤	-11.2933
▁1953	-11.2933
▁部隊	-11.2934
▁fat	-11.2936
▁在地	-11.2939
ink	-11.2939
▁覆	-11.294
▁1590	-11.2941
▁高松	-11.2943
▁渋	-11.2943
▁済	-11.2944
▁誤	-11.2945
buki	-11.2947
阿	-11.2948
▁contribution	-11.2949
tur	-11.2952
▁Kochi	-11.2953
▁耳	-11.2954
▁explanation	-11.2956
▁goddess	-11.2956
▁戊辰	-11.2956
▁Yawata	-11.2956
▁Yayoi	-11.2956
▁鈴木	-11.2956
▁認定	-11.2956
▁pan	-11.2959
▁体系	-11.296
▁鑑	-11.296
▁新設	-11.2964
▁tales	-11.2967
▁楽し	-11.2973
▁suprem	-11.2974
▁義務	-11.2978
minute	-11.2983
▁wine	-11.2983
蘇	-11.2984
▁appropriate	-11.2985
▁welcom	-11.2985
讃	-11.2985
▁clean	-11.2985
▁漢詩	-11.2985
▁豆	-11.2985
▁creat	-11.2987
▁渡辺	-11.2987
▁ヤ	-11.2988
▁1903	-11.2988
▁1981	-11.2989
teki	-11.2989
▁incense	-11.2989
▁Tozai	-11.2992
▁親子	-11.2992
現	-11.2993
▁浸	-11.2993
▁neighboring	-11.2994
▁kon	-11.2994
決	-11.3
▁tall	-11.3001
▁集ま	-11.3001
▁宮城	-11.3002
▁づ	-11.3003
▁Goryo	-11.3011
▁締結	-11.3013
淵	-11.3013
▁ward	-11.3014
▁classification	-11.3014
▁1906	-11.3017
▁権守	-11.3018
▁紀元	-11.3021
▁kokuga	-11.3024
▁戦前	-11.3024
brother	-11.3032
悪	-11.3032
墳	-11.3038
▁shell	-11.3039
▁Culture	-11.3041
▁KONDO	-11.3041
枢	-11.3041
▁被害	-11.3043
lf	-11.3043
▁格式	-11.3044
▁printed	-11.3044
▁1941	-11.3045
adding	-11.3045
▁Kageto	-11.3047
▁nun	-11.3047
rmed	-11.3049
▁芝	-11.305
▁田村	-11.3052
lated	-11.3052
▁Yang	-11.3052
modern	-11.3061
▁layer	-11.3068
▁Continu	-11.307
▁museum	-11.307
▁習慣	-11.307
▁井伊	-11.307
▁頻	-11.307
分け	-11.3072
▁庇	-11.3073
▁cup	-11.3074
▁引用	-11.3077
▁Daitoku	-11.3077
▁plants	-11.3078
▁manuscripts	-11.3081
近	-11.3085
▁obi	-11.3089
迫	-11.309
標	-11.309
占	-11.309
▁Iso	-11.3094
▁Service	-11.3098
タンゴ	-11.3099
▁正五	-11.31
▁資格	-11.3101
▁elementary	-11.3101
▁Kyogoku	-11.3101
▁弘安	-11.3102
▁1992	-11.3102
▁人民	-11.3104
▁Shimogyo	-11.3105
▁倭国	-11.3106
▁Railways	-11.3108
▁卒	-11.3108
▁直前	-11.3112
Shi	-11.3117
邦	-11.3119
▁始まり	-11.3123
菱	-11.3127
▁fundoshi	-11.3127
▁1924	-11.3131
▁奴	-11.3138
▁長慶	-11.3139
▁貸	-11.3141
▁倍	-11.3141
▁1585	-11.3142
▁さえ	-11.3143
▁tone	-11.3145
▁石田	-11.3148
▁looked	-11.3151
▁guide	-11.3151
rage	-11.3151
▁廻	-11.3152
▁commenc	-11.3156
麓	-11.3156
▁personnel	-11.3156
▁curry	-11.3156
▁pressure	-11.3156
▁加増	-11.3156
▁丁目	-11.3157
換え	-11.3159
uff	-11.316
▁1915	-11.316
▁盛り	-11.3162
▁note	-11.3163
▁career	-11.317
▁民部	-11.3172
▁bigge	-11.3174
▁本殿	-11.3174
公	-11.3178
▁分野	-11.318
▁内蔵	-11.3182
▁Seven	-11.3183
▁responsibilit	-11.3185
殖	-11.3185
溝	-11.3185
▁疑問	-11.3185
▁compos	-11.3185
▁KATO	-11.3186
▁Saemon	-11.319
▁例外	-11.319
▁挟	-11.3192
▁苦し	-11.3193
▁衛	-11.3194
▁1892	-11.3194
▁Suo	-11.3194
▁一致	-11.3198
▁笛	-11.3199
ichiro	-11.3206
▁Asian	-11.3206
簡	-11.3208
違い	-11.3211
zi	-11.3212
▁決ま	-11.3213
▁patron	-11.3213
▁precept	-11.3213
▁administer	-11.3213
▁提供	-11.3214
▁貨物	-11.3214
▁発足	-11.3217
▁Hideyori	-11.3219
九郎	-11.3226
▁長岡	-11.323
▁一覧	-11.3231
▁map	-11.3236
弓	-11.3237
▁regime	-11.3237
▁那	-11.3238
▁参考	-11.3243
▁博多	-11.3243
▁3000	-11.3243
▁seats	-11.3244
▁Ryukyu	-11.3244
▁Boshin	-11.325
▁柔	-11.3254
puku	-11.3259
▁broken	-11.3261
▁sutras	-11.3263
還	-11.3265
鑑	-11.3267
▁occasions	-11.3269
従四	-11.3269
▁Matsudaira	-11.3271
邪	-11.3271
▁Current	-11.3272
▁cuisine	-11.3272
▁contract	-11.3272
▁steward	-11.3272
io	-11.3273
▁unlike	-11.3274
▁win	-11.3274
use	-11.3275
▁1909	-11.3276
▁subjects	-11.3282
▁Miyako	-11.3285
▁container	-11.329
▁家族	-11.3291
商	-11.3293
MATSU	-11.3295
糸	-11.3297
omb	-11.3297
geki	-11.3298
▁occur	-11.33
▁Ibaraki	-11.3301
▁foster	-11.3301
▁squad	-11.3301
▁加工	-11.3303
▁住吉	-11.3304
▁義教	-11.3308
▁skin	-11.3308
▁kana	-11.3312
▁presum	-11.3314
ept	-11.3316
mber	-11.3316
sign	-11.3321
▁賛	-11.3323
▁袴	-11.3325
▁formation	-11.3326
▁Osa	-11.3328
▁disaster	-11.333
庸	-11.333
麿	-11.333
▁大いに	-11.333
▁brave	-11.333
▁marry	-11.333
▁築城	-11.3334
齢	-11.3339
▁mission	-11.334
▁Shigemori	-11.3341
▁1858	-11.3344
tsuka	-11.3346
▁00	-11.3353
須	-11.3356
▁職人	-11.3359
▁ぶり	-11.3359
▁Sukune	-11.3359
▁conference	-11.3359
匁	-11.3359
賊	-11.3359
▁categoriz	-11.3359
▁baby	-11.3359
▁最澄	-11.336
▁剣術	-11.3361
▁亮	-11.3369
▁discussion	-11.3369
▁しば	-11.3373
スター	-11.3378
▁publication	-11.3381
mentioned	-11.3387
▁旗	-11.3388
▁マキノ	-11.3389
縛	-11.3389
▁敗北	-11.3389
▁留守	-11.3389
▁流罪	-11.3391
▁門跡	-11.3392
▁尾上	-11.3392
▁豊後	-11.3394
most	-11.3394
▁Jinmu	-11.3394
▁Nii	-11.3398
▁琴	-11.3402
▁tanka	-11.3402
▁believers	-11.3404
▁Minbu	-11.3408
▁正統	-11.3408
▁closely	-11.3414
少	-11.3416
▁閣	-11.3417
▁Kogo	-11.3418
婦	-11.3418
▁Biography	-11.3418
▁French	-11.3418
▁stipulat	-11.3418
▁transform	-11.3418
胡	-11.3418
▁Odawara	-11.3419
▁訴え	-11.3422
▁諸藩	-11.3423
▁病院	-11.3423
▁1913	-11.3424
▁明石	-11.3428
▁吉川	-11.3431
▁shaped	-11.3433
▁draw	-11.3435
▁柄	-11.3435
▁stops	-11.3436
▁Six	-11.3445
▁feel	-11.3446
▁Not	-11.3446
稚	-11.3448
▁TANAKA	-11.3448
▁yellow	-11.3448
▁improvement	-11.3449
▁Kanagawa	-11.345
▁初頭	-11.3452
▁Daikaku	-11.3459
風土	-11.3462
▁Hime	-11.3462
いで	-11.347
▁丈	-11.3472
尚	-11.3476
▁1979	-11.3477
▁Production	-11.3477
▁SAKANOUE	-11.3477
▁consequent	-11.3477
▁議論	-11.3478
▁片岡	-11.348
▁サイ	-11.3482
▁Tanabe	-11.3482
aku	-11.3484
▁改元	-11.3486
▁Hen	-11.3489
▁大徳	-11.349
▁subsequent	-11.3491
riki	-11.3492
Hidetsugu	-11.3493
▁selling	-11.3499
umi	-11.35
▁Ike	-11.3505
加	-11.3506
▁enthron	-11.3507
▁Tachibana	-11.3507
▁KATSURA	-11.3507
飾	-11.3508
▁既	-11.3508
▁弁当	-11.3508
▁Name	-11.3509
▁風習	-11.3509
▁limit	-11.351
▁対策	-11.3512
▁Ph	-11.3512
▁Koho	-11.3523
▁sales	-11.3534
呂	-11.3536
漬	-11.3537
▁philosophy	-11.3537
▁競技	-11.3537
▁奉納	-11.3538
▁suitable	-11.3538
▁浮世	-11.3539
▁きん	-11.3539
シャ	-11.3539
▁弥生	-11.354
▁侵	-11.3544
▁featur	-11.3546
二郎	-11.3547
▁Toji	-11.355
▁生地	-11.3551
▁feature	-11.3551
▁ザ	-11.3552
ature	-11.3556
▁定家	-11.3559
▁OE	-11.3565
▁aristocrat	-11.3566
丼	-11.3567
▁栽培	-11.3567
▁設計	-11.3567
▁企業	-11.3567
▁please	-11.3567
▁composition	-11.3567
指	-11.3568
激	-11.3568
▁依頼	-11.3568
▁琉	-11.3569
▁通過	-11.3569
▁日付	-11.357
▁居城	-11.3571
▁秀頼	-11.3571
▁家元	-11.3573
▁速	-11.3573
▁峰	-11.3577
小松	-11.358
▁権利	-11.358
▁linked	-11.3582
▁松本	-11.3583
ball	-11.3584
わり	-11.3585
▁Kaneie	-11.3585
▁明和	-11.3586
▁本家	-11.3593
兵部	-11.3594
関	-11.3594
▁animals	-11.3594
▁Consequent	-11.3597
▁virtual	-11.3597
▁pronunciation	-11.3597
乏	-11.3597
▁accus	-11.3597
聖	-11.3599
▁商業	-11.36
▁exit	-11.3601
▁1934	-11.3601
▁pure	-11.3602
遂げ	-11.3602
▁burnt	-11.3603
▁高ま	-11.3603
▁Jokyu	-11.3604
▁固め	-11.3605
▁roughly	-11.3605
▁必	-11.3606
▁Hatsu	-11.3607
▁Hachijo	-11.361
▁possession	-11.3611
av	-11.3611
▁Naru	-11.3613
▁猿	-11.3614
SHINA	-11.3618
▁stream	-11.3624
▁Koi	-11.3625
▁HAYASHI	-11.3627
▁ladies	-11.3627
▁IKEDA	-11.3628
▁極楽	-11.3629
▁fil	-11.3629
ヒ	-11.363
▁1922	-11.3631
▁履	-11.3633
▁座主	-11.3635
▁開通	-11.3637
▁immediate	-11.3641
▁入内	-11.3655
▁eye	-11.3656
ung	-11.3657
嘆	-11.3657
▁pseudonym	-11.3657
唄	-11.3657
軽	-11.3661
▁法要	-11.3661
▁distinguish	-11.3662
揚げ	-11.3662
ラー	-11.3662
▁Togoku	-11.3664
▁smaller	-11.3665
▁hope	-11.3667
▁Yoshitoki	-11.3667
▁貧	-11.3669
mikoto	-11.3676
▁partly	-11.3676
▁秀次	-11.3678
▁girls	-11.3683
▁staying	-11.3683
だい	-11.3685
▁buckwheat	-11.3688
▁eliminat	-11.3688
▁拾遺	-11.3688
▁掌握	-11.3688
▁生駒	-11.3688
▁calling	-11.3691
▁乗せ	-11.3691
▁成人	-11.3693
▁creation	-11.3694
▁mediat	-11.3696
▁猪	-11.3698
▁Kenmu	-11.3698
▁遂	-11.37
▁chapters	-11.3701
▁citizens	-11.3702
▁次郎	-11.3708
▁KURODA	-11.3718
▁profit	-11.3718
▁ignor	-11.3718
▁hakama	-11.3718
chan	-11.3718
▁大宰府	-11.3718
evaluat	-11.3722
寛	-11.3723
▁larger	-11.3723
受け	-11.3725
▁beat	-11.3726
▁180	-11.3726
▁jito	-11.3727
▁seat	-11.3727
▁潜	-11.3728
▁歌合	-11.3729
▁nearly	-11.3732
▁forty	-11.3736
▁情	-11.374
▁foods	-11.3744
▁Yaku	-11.3745
▁大寺	-11.3748
▁dream	-11.3749
▁きっかけ	-11.3749
▁乾燥	-11.3749
▁正親町	-11.3749
慧	-11.3749
▁翻訳	-11.3749
▁fruit	-11.3749
▁閉	-11.3751
▁Mata	-11.3753
▁止め	-11.3753
寮	-11.3754
省	-11.3754
▁Sino	-11.3757
▁handle	-11.3758
▁800	-11.3761
▁Tensho	-11.3762
toge	-11.3765
裔	-11.3768
▁Tenjin	-11.3776
▁入学	-11.3777
▁沈	-11.3777
mage	-11.3777
▁昭	-11.3778
▁Railroad	-11.3779
▁Women	-11.3779
▁prison	-11.3779
戯	-11.3779
粋	-11.3779
裕	-11.3779
▁Pacific	-11.3779
▁シャ	-11.3779
▁chance	-11.3779
▁Yamazaki	-11.378
▁sitting	-11.378
▁assassination	-11.3781
▁agreed	-11.3783
▁accompaniment	-11.3783
▁日光	-11.3786
▁大陸	-11.3786
▁大日	-11.3803
▁farm	-11.3805
踊	-11.3809
▁essential	-11.381
▁勃発	-11.381
▁Promot	-11.381
▁鷹司	-11.381
▁綱吉	-11.3812
▁鴨川	-11.3812
▁愚	-11.3813
nagon	-11.3816
賛	-11.3817
妃	-11.3817
▁72	-11.3819
▁race	-11.3821
▁掘	-11.3825
▁Masamoto	-11.3826
ろう	-11.3827
▁49	-11.3829
▁team	-11.3829
▁売り	-11.383
▁竹田	-11.383
▁Shonin	-11.3833
ably	-11.3835
義朝	-11.3836
▁kosa	-11.3838
苑	-11.384
▁Interchange	-11.3841
尻	-11.3841
毘	-11.3841
▁載せ	-11.3841
▁持明	-11.3841
▁consum	-11.3841
▁発祥	-11.3842
▁usage	-11.3842
▁Shoki	-11.3845
▁reconstruction	-11.3847
矢	-11.3848
熱	-11.3848
sized	-11.3852
▁grow	-11.3857
ica	-11.3858
▁出発	-11.3859
▁Akashi	-11.3861
▁touch	-11.3861
▁Jugoino	-11.387
▁library	-11.3871
▁twice	-11.3871
▁ホテル	-11.3871
堤	-11.3871
弐	-11.3871
▁exempt	-11.3871
▁菊池	-11.3872
▁ONOE	-11.3872
▁valuable	-11.3872
▁太刀	-11.3873
▁roju	-11.3877
▁野村	-11.3879
休	-11.3879
▁Yorinaga	-11.388
温	-11.388
▁飾り	-11.388
▁securit	-11.388
▁Takamatsu	-11.3881
▁manage	-11.3883
▁streets	-11.3888
▁Died	-11.3892
▁Joi	-11.3896
▁unifi	-11.3897
演	-11.3897
▁classics	-11.3898
添	-11.3902
▁Building	-11.3902
▁expense	-11.3902
▁執筆	-11.3903
▁spot	-11.3903
▁moving	-11.3903
▁意図	-11.3904
▁松尾	-11.3907
▁finger	-11.3907
▁番号	-11.3908
▁眼	-11.3908
接	-11.3908
▁Chang	-11.3912
▁地上	-11.3913
▁少年	-11.3915
▁長尾	-11.3919
▁exhibit	-11.392
ロー	-11.3926
▁主体	-11.3929
▁vinegar	-11.3933
YANAGI	-11.3933
▁利益	-11.3934
▁遠江	-11.3935
▁襲名	-11.3936
▁縫	-11.3937
▁1963	-11.3938
▁国府	-11.3938
▁異説	-11.3938
▁町人	-11.3944
▁着物	-11.3944
▁Higo	-11.3944
▁celebrate	-11.3945
尉	-11.3947
▁天然	-11.3947
こう	-11.395
▁SANJO	-11.3952
▁おも	-11.3957
▁公事	-11.396
取り	-11.3964
▁福知	-11.3964
▁confusion	-11.3965
▁jurisdiction	-11.3965
▁解散	-11.3965
▁比売	-11.3966
▁moral	-11.3966
▁没落	-11.3967
▁1954	-11.3969
▁1975	-11.3969
ler	-11.3971
▁waiting	-11.3971
碑	-11.3975
▁出自	-11.3977
▁bag	-11.3977
▁1592	-11.398
▁Takakuni	-11.3981
▁frame	-11.3996
▁Suzaku	-11.3996
伽	-11.3996
佛	-11.3996
▁category	-11.3996
▁perfect	-11.3996
▁wet	-11.3997
▁Ikoma	-11.3997
▁underground	-11.3998
▁西園寺	-11.3998
▁Kosho	-11.3998
▁1933	-11.4
▁Mine	-11.4001
▁1968	-11.4002
版	-11.4003
eight	-11.4003
bound	-11.4004
▁払	-11.4005
ator	-11.4007
body	-11.4007
▁能力	-11.4012
▁どち	-11.4014
▁Tsuruga	-11.4015
▁Oyama	-11.4022
▁test	-11.4024
尋	-11.4027
▁calculat	-11.4027
▁erected	-11.4027
▁但馬	-11.4027
▁灌頂	-11.4027
▁神奈川	-11.4027
▁攻略	-11.4027
▁<	-11.4028
▁1,	-11.4028
▁伝授	-11.4028
▁Senju	-11.4028
▁日常	-11.4029
4	-11.403
▁作曲	-11.4033
▁番線	-11.4033
▁犯	-11.4037
▁1893	-11.4037
征	-11.4038
失	-11.4038
▁broth	-11.4046
kke	-11.4046
▁Oji	-11.4047
▁seasoning	-11.4048
TE	-11.405
▁重文	-11.4051
▁Awaji	-11.4056
艦	-11.4056
▁Dajokan	-11.4059
▁approx	-11.4059
▁獅子	-11.4059
▁乳母	-11.4059
▁fair	-11.4059
▁Kawaramachi	-11.4059
▁ルート	-11.406
▁太陽	-11.406
▁投げ	-11.406
▁1914	-11.4063
▁1921	-11.4063
▁西京	-11.4065
▁Shoin	-11.4066
▁会員	-11.4067
▁hung	-11.4067
スク	-11.407
six	-11.4072
▁Machi	-11.4082
▁試	-11.4082
▁息	-11.4083
imposed	-11.4085
▁門人	-11.4089
goe	-11.4089
▁トンネル	-11.409
▁enacted	-11.409
▁砂糖	-11.409
▁imitat	-11.409
▁ケース	-11.409
▁cris	-11.4091
▁機構	-11.4091
▁専攻	-11.4091
▁Kanezane	-11.4092
▁thing	-11.4096
▁動物	-11.4097
▁書状	-11.4097
▁provid	-11.4097
▁bodi	-11.4099
▁sole	-11.4101
▁Yoshitada	-11.4111
▁Goro	-11.4112
▁作法	-11.4114
爵	-11.4118
▁vicinity	-11.4122
泥	-11.4122
▁flag	-11.4122
▁admir	-11.4122
▁Stand	-11.4123
▁永享	-11.4123
▁選挙	-11.4123
▁蘭学	-11.4123
▁confrontation	-11.4124
▁桜井	-11.4125
▁也	-11.4125
▁来る	-11.4125
▁仕事	-11.4126
▁大半	-11.4127
▁1966	-11.4127
▁貝	-11.4129
ヌ	-11.4132
▁Zui	-11.4135
▁王子	-11.4148
▁Kono	-11.4149
▁numerous	-11.4154
▁アルコール	-11.4154
▁脚	-11.4154
▁触れ	-11.4154
▁Asakura	-11.4154
▁コース	-11.4154
▁mythology	-11.4155
ural	-11.4156
▁Saitama	-11.4156
▁発売	-11.4157
▁1952	-11.4158
み出	-11.4163
▁乃	-11.4164
▁日間	-11.4168
▁discussed	-11.4168
星	-11.4168
蓮華	-11.4169
兄弟	-11.4169
▁尉	-11.4172
▁Now	-11.4176
▁徒	-11.4181
▁Jitsu	-11.4183
壊	-11.4185
鈴	-11.4185
▁chicken	-11.4185
▁flood	-11.4185
壮	-11.4185
悦	-11.4185
▁KANZE	-11.4185
▁判官	-11.4188
らえ	-11.4189
▁1935	-11.419
▁長女	-11.419
▁大山	-11.4191
▁橋本	-11.4194
▁山陽	-11.4195
ナー	-11.4199
腹	-11.42
▁高知	-11.4201
▁prosperit	-11.4203
▁丘	-11.4205
ui	-11.4209
▁歯	-11.421
▁Tate	-11.4216
▁severe	-11.4217
▁municipal	-11.4217
▁blossoms	-11.4217
▁trigger	-11.4217
▁混ぜ	-11.4217
▁Establish	-11.4217
▁謙信	-11.4217
▁交換	-11.4218
▁誠	-11.4218
▁円墳	-11.4219
▁argument	-11.422
▁inspector	-11.422
▁出演	-11.4221
▁cards	-11.4223
▁scrolls	-11.4223
OKU	-11.423
笛	-11.4233
stead	-11.4239
どう	-11.4239
▁一行	-11.4246
▁Imadegawa	-11.4249
嘗	-11.4249
矩	-11.4249
稙	-11.4249
▁Saionji	-11.4249
▁warehouse	-11.425
Sa	-11.4251
▁Xi	-11.4253
▁Color	-11.4253
▁1967	-11.4256
▁Russian	-11.4258
▁損	-11.4261
gashi	-11.4263
じょう	-11.4264
▁Tachi	-11.4266
▁Fo	-11.4267
雀	-11.4271
▁Amitabha	-11.4282
▁vessel	-11.4282
▁Campus	-11.4282
▁dominat	-11.4283
占領	-11.4283
▁延宝	-11.4284
▁Kame	-11.4285
▁1984	-11.4286
long	-11.4287
zake	-11.429
よそ	-11.4296
▁ISHI	-11.4297
▁celebration	-11.4298
弱	-11.4299
▁supporters	-11.4299
▁notes	-11.43
▁多田	-11.4305
▁部屋	-11.4305
▁steamed	-11.4306
▁Sp	-11.4307
▁揚げ	-11.431
▁元来	-11.4312
▁MIZUNO	-11.4314
▁lunch	-11.4314
烈	-11.4314
▁棟梁	-11.4314
▁wait	-11.4315
▁勧進	-11.4315
▁牧野	-11.4316
▁吉備	-11.4317
▁花園	-11.4317
▁四十	-11.4318
▁Ochi	-11.4318
▁Tono	-11.4319
bachi	-11.4322
▁事例	-11.4324
▁Jisho	-11.4333
▁1221	-11.4335
▁山中	-11.4336
▁procedures	-11.4338
▁utensils	-11.4338
▁arrows	-11.4339
▁藩士	-11.4339
耕	-11.4346
▁Hundred	-11.4346
隋	-11.4346
▁presence	-11.4346
▁mourn	-11.4346
▁久我	-11.4347
▁mistake	-11.4347
▁Ayabe	-11.4348
▁看	-11.4349
▁嵯峨野	-11.4351
▁girl	-11.4351
▁秩	-11.4352
▁重盛	-11.4362
▁辰	-11.4367
▁白川	-11.4368
▁throw	-11.4372
企	-11.4379
▁掲載	-11.4379
沙	-11.4379
渓	-11.4379
▁scatter	-11.4379
▁fiction	-11.4379
▁SASAKI	-11.4379
▁参拝	-11.4379
▁衛門	-11.4381
▁Site	-11.4385
▁sought	-11.4391
▁小路	-11.4391
made	-11.4393
▁ratio	-11.4398
及	-11.4398
植	-11.4398
▁磨	-11.4399
▁Era	-11.4401
▁ware	-11.4405
▁hana	-11.4407
▁uta	-11.4407
▁missionar	-11.4411
▁Bicchu	-11.4411
▁utiliz	-11.4411
▁abroad	-11.4411
▁apparent	-11.4411
操	-11.4411
▁calligraphic	-11.4411
▁留ま	-11.4412
▁天王寺	-11.4413
▁配下	-11.4415
▁改良	-11.4416
▁品種	-11.4416
▁評定	-11.4416
▁1974	-11.4417
▁喪	-11.4421
干	-11.4431
申	-11.4432
財	-11.4432
sauce	-11.4432
▁Home	-11.4433
せん	-11.4435
nashi	-11.4435
hitsu	-11.4436
▁Kubo	-11.4439
▁buy	-11.444
づけ	-11.4443
▁Zeami	-11.4444
▁quarters	-11.4444
旋	-11.4444
▁Flower	-11.4444
▁convey	-11.4444
▁stall	-11.4444
▁縄文	-11.4444
▁姉妹	-11.4444
▁acid	-11.4445
▁resistance	-11.4446
▁Kano	-11.4446
カツ	-11.4448
▁1959	-11.4449
▁1978	-11.4449
▁元治	-11.4452
▁葺	-11.4456
ゃく	-11.4457
由	-11.4459
ame	-11.4462
舟	-11.4465
丁	-11.4465
維	-11.4465
▁entitl	-11.4467
しん	-11.4469
▁Monjo	-11.4471
▁小山	-11.4472
▁access	-11.4473
▁actions	-11.4474
▁objects	-11.4474
彩	-11.4476
▁Gei	-11.4476
▁seppuku	-11.4477
奔	-11.4477
▁ornament	-11.4477
▁peak	-11.4477
▁茶碗	-11.4477
▁march	-11.4478
▁exact	-11.4478
▁葛城	-11.4479
position	-11.4479
▁万国	-11.4479
▁機会	-11.448
▁nei	-11.448
▁名所	-11.448
▁斎宮	-11.4481
▁脱出	-11.4482
▁Tandai	-11.4483
▁堀川	-11.4484
▁Fuyu	-11.4487
▁Fumi	-11.4488
▁specializ	-11.4489
kaze	-11.4491
▁craft	-11.4496
▁Ame	-11.4498
皮	-11.4499
▁曹	-11.4507
iscellaneous	-11.451
▁contest	-11.451
▁vehicle	-11.451
▁ISHIKAWA	-11.451
▁叙爵	-11.451
▁稲葉	-11.4511
▁億	-11.4511
▁Taishogun	-11.4512
▁payment	-11.4514
▁復元	-11.4514
▁真田	-11.4514
▁slic	-11.4515
▁紐	-11.4516
▁struggle	-11.4516
▁Taishi	-11.4518
▁approval	-11.452
▁Toyama	-11.4524
▁1860	-11.4525
▁Note	-11.4527
▁locations	-11.4528
名誉	-11.453
▁スル	-11.4531
賞	-11.4532
▁Sagano	-11.4535
▁Kobun	-11.4538
▁tool	-11.4538
▁頼家	-11.454
▁Misasagi	-11.4543
▁absorb	-11.4543
▁fourteen	-11.4543
▁physical	-11.4543
▁購入	-11.4543
凡	-11.4543
襖	-11.4543
▁beyond	-11.4543
▁spiritual	-11.4543
▁羽柴	-11.4543
▁Taiko	-11.4544
▁kugyo	-11.4547
▁1971	-11.4548
▁1883	-11.4552
▁松井	-11.4555
▁abolish	-11.4556
▁writings	-11.4557
▁鐘	-11.4563
▁Nen	-11.4563
受	-11.4564
▁傘	-11.4564
▁Basho	-11.4565
払	-11.4565
鬼	-11.4566
jiri	-11.4566
▁rais	-11.4567
▁ルー	-11.4574
▁virtue	-11.4576
▁ownership	-11.4576
▁猿楽	-11.4577
▁没収	-11.4578
▁What	-11.4579
▁叙任	-11.4579
▁issues	-11.4579
▁正徳	-11.4581
じま	-11.4582
tsugi	-11.4583
▁茶室	-11.4583
▁KITA	-11.4584
▁明応	-11.4585
▁observed	-11.4585
▁Ikeda	-11.4587
▁Shojo	-11.4589
▁shoulder	-11.4592
▁Unti	-11.4594
zui	-11.4594
▁疎	-11.4598
▁core	-11.4604
▁Commerce	-11.4609
▁KUSUNOKI	-11.4609
▁President	-11.4609
▁Public	-11.4609
扉	-11.4609
瓶	-11.4609
▁im	-11.4611
▁項目	-11.4611
▁descendent	-11.4611
▁越中	-11.4612
▁700	-11.4619
▁Kuri	-11.4625
▁raid	-11.4625
▁monjo	-11.4626
▁中止	-11.4626
▁のみこ	-11.4631
atic	-11.4633
▁1156	-11.4635
▁Part	-11.4636
綿	-11.4641
▁1,000	-11.4642
▁log	-11.4642
▁化粧	-11.4642
chome	-11.4644
▁1956	-11.4648
▁根本	-11.4648
▁semi	-11.4651
▁朝日	-11.4652
▁cook	-11.4657
▁灰	-11.466
トリ	-11.4664
詳	-11.4666
▁Saki	-11.4666
仙	-11.4667
temple	-11.4668
▁象	-11.4671
▁Asano	-11.4675
▁illustrat	-11.4675
▁寄せ	-11.4675
▁Development	-11.4676
▁firm	-11.4676
▁答え	-11.4676
▁働き	-11.4676
▁continuous	-11.4677
大覚	-11.4678
▁Eight	-11.468
▁growing	-11.4681
▁weapons	-11.4684
▁職務	-11.4685
▁Miyake	-11.4687
▁値	-11.469
▁servants	-11.4692
▁兵力	-11.4696
▁けい	-11.4696
▁promote	-11.4697
▁characteriz	-11.4699
▁dramas	-11.4701
とう	-11.4701
剣	-11.4702
了	-11.4702
.1	-11.4703
斗	-11.4709
晋	-11.4709
▁nenbutsu	-11.4709
▁YAMAMOTO	-11.471
gyu	-11.471
▁Kaya	-11.4714
▁演目	-11.4714
▁fast	-11.4715
▁scenes	-11.4716
▁collapse	-11.4719
bune	-11.4724
▁熟	-11.4725
gari	-11.4726
▁同日	-11.4733
▁虚	-11.4734
酒屋	-11.4735
▁Dr	-11.4736
▁share	-11.4737
▁埼	-11.4739
▁Regard	-11.4743
▁environment	-11.4743
▁KATAOKA	-11.4743
▁false	-11.4743
▁隣接	-11.4743
▁儀礼	-11.4743
▁淡路	-11.4744
▁桑	-11.4744
▁併せ	-11.4744
rrow	-11.4745
▁定員	-11.4747
▁天照	-11.4749
▁本多	-11.475
▁expos	-11.4753
ption	-11.4753
▁定義	-11.4753
▁げん	-11.4755
▁Tera	-11.4756
▁一体	-11.4757
▁アル	-11.4757
▁determin	-11.4759
茂	-11.4762
▁つれ	-11.4763
kara	-11.4764
▁Muraji	-11.4764
▁高田	-11.4769
穴	-11.4771
▁Hav	-11.4773
▁minor	-11.4774
鮮	-11.4776
▁枕	-11.4776
▁Sake	-11.4776
▁blind	-11.4777
▁expansion	-11.4777
蛇	-11.4777
▁OISHI	-11.4777
▁Hanazono	-11.4777
▁松竹	-11.4778
▁義輝	-11.4779
▁nearby	-11.4779
losing	-11.4779
▁故実	-11.478
dashi	-11.478
▁日向	-11.478
▁Dazaifu	-11.4781
▁目録	-11.4781
▁cultivation	-11.4782
Heishi	-11.4782
▁1957	-11.4782
▁剥	-11.4783
▁麺	-11.4784
▁ほん	-11.4787
▁硬	-11.4789
▁大野	-11.4797
▁conventional	-11.4798
bana	-11.4801
唐	-11.4806
閉	-11.4806
▁covering	-11.4807
▁critical	-11.4808
▁brigade	-11.4811
▁分裂	-11.4812
▁Nikki	-11.4812
▁hat	-11.4813
▁Munemori	-11.4817
▁小判	-11.4817
JO	-11.4818
▁教会	-11.4819
mpo	-11.482
▁mounds	-11.4821
▁attendant	-11.4822
うやく	-11.4823
▁東海	-11.4824
▁701	-11.4826
▁collaps	-11.4835
▁捨て	-11.4835
▁効	-11.4837
▁restore	-11.4837
▁Eki	-11.4843
▁排除	-11.4845
塞	-11.4845
苗	-11.4845
▁climb	-11.4845
▁囃子	-11.4845
▁Poet	-11.4846
▁工場	-11.4848
▁大宰	-11.4848
▁八条	-11.4849
▁farming	-11.485
▁Eizan	-11.485
▁apart	-11.4851
▁区域	-11.4852
gyoku	-11.4853
▁parent	-11.4855
▁翌日	-11.4856
▁golden	-11.4856
▁deni	-11.486
gram	-11.487
ダー	-11.4875
也	-11.4875
▁懸	-11.4876
▁Men	-11.4878
▁benefit	-11.4879
升	-11.4879
篭	-11.4879
貼	-11.4879
▁Yanagi	-11.4879
▁双方	-11.4881
▁書写	-11.4881
▁立憲	-11.4881
▁Chinju	-11.4881
▁案内	-11.4881
▁敷地	-11.4883
▁1973	-11.4884
▁1982	-11.4884
▁菅	-11.4886
▁kaban	-11.4887
▁manners	-11.4887
▁reli	-11.4889
▁太田	-11.4894
▁Koki	-11.4895
▁日清	-11.4899
▁gathering	-11.4905
▁ひめ	-11.4906
part	-11.4907
活	-11.4907
▁provisions	-11.4908
袋	-11.491
wear	-11.4913
扶	-11.4913
▁permanent	-11.4913
▁Preservation	-11.4913
悩	-11.4913
菌	-11.4913
▁pardon	-11.4913
▁店舗	-11.4913
▁merit	-11.4914
▁decorative	-11.4914
▁karate	-11.4918
▁1964	-11.4918
Ma	-11.492
ochi	-11.4922
裏	-11.4924
▁Kengyo	-11.4924
▁Sakurai	-11.4926
▁翁	-11.4926
▁作家	-11.493
神社	-11.493
▁下級	-11.4931
▁けん	-11.4935
▁ruins	-11.4943
.3	-11.4944
▁county	-11.4945
鎮	-11.4945
嵐	-11.4947
▁Graduate	-11.4947
▁Shoshiinoge	-11.4947
▁consult	-11.4947
▁普請	-11.4948
義貞	-11.4948
▁mansion	-11.4948
▁宮廷	-11.4949
▁HINO	-11.495
▁doors	-11.4951
▁経歴	-11.4952
▁開祖	-11.4952
▁正成	-11.4956
▁Water	-11.4959
▁improved	-11.4961
▁ひろ	-11.4963
▁forward	-11.4968
豆	-11.4977
▁ソー	-11.4978
lies	-11.4978
▁酢	-11.4979
禁	-11.4981
晩	-11.4982
▁uniform	-11.4982
▁dissolved	-11.4982
▁familiar	-11.4982
▁猶子	-11.4982
▁Former	-11.4982
▁hunting	-11.4982
▁差し	-11.4982
▁注釈	-11.4982
▁周防	-11.4983
▁挿	-11.4984
▁Dainichi	-11.4984
▁玉葉	-11.4984
▁Shochiku	-11.4984
▁Area	-11.4985
▁調味	-11.4986
チャ	-11.4986
▁文武	-11.4988
.2	-11.499
▁Totomi	-11.499
▁肩	-11.4995
▁Classic	-11.4998
choku	-11.5005
ama	-11.5005
ese	-11.501
昭	-11.5013
卑	-11.5016
▁technology	-11.5016
滑	-11.5016
炉	-11.5016
▁historian	-11.5016
▁tactic	-11.5016
▁mask	-11.5017
▁Horse	-11.5017
▁Gyokuyo	-11.5018
▁〜	-11.5024
▁Eiga	-11.5025
▁enforced	-11.5026
▁precinct	-11.5028
▁所司	-11.5029
▁Onna	-11.503
▁武道	-11.5037
▁Setsu	-11.5041
程	-11.5051
屯	-11.5051
▁スサノオ	-11.5051
▁モデル	-11.5051
▁討ち取	-11.5051
▁favorite	-11.5052
▁北畠	-11.5052
▁Myoho	-11.5052
born	-11.5052
▁旅団	-11.5054
Ko	-11.5055
▁男女	-11.5056
▁1977	-11.5057
▁shite	-11.5058
トラ	-11.506
▁委	-11.506
▁西南	-11.5062
▁arrive	-11.5064
▁本社	-11.5072
▁誘	-11.5076
▁限り	-11.5079
▁classes	-11.5083
▁accident	-11.5086
▁Ecchu	-11.5086
▁apprentice	-11.5086
▁puppet	-11.5086
▁surprise	-11.5086
▁honorific	-11.5086
▁carved	-11.5086
▁漬け	-11.5086
▁櫓	-11.5087
帳	-11.5087
▁Shino	-11.5089
▁1937	-11.5089
▁絵師	-11.5089
▁或	-11.509
▁daytime	-11.509
▁俵	-11.5093
▁instructor	-11.5094
▁栄え	-11.5096
nawa	-11.5097
monme	-11.5097
sect	-11.5101
▁折り	-11.5107
急	-11.5121
紹	-11.5121
▁esoteric	-11.5121
翼	-11.5121
餡	-11.5121
▁viewpoint	-11.5121
餅	-11.5124
▁叙位	-11.5126
▁通信	-11.5126
▁Yorimichi	-11.5129
6	-11.5131
▁lose	-11.5132
▁Tofuku	-11.5133
▁dolls	-11.5135
▁炊	-11.5139
▁各国	-11.5144
chiyo	-11.5146
▁Ue	-11.5149
▁余り	-11.5151
▁guns	-11.5153
▁ロー	-11.5154
▁Tenshu	-11.5156
騒	-11.5156
▁resource	-11.5156
▁wrestler	-11.5156
▁suppli	-11.5156
▁巫女	-11.5156
▁軌道	-11.5156
▁Minato	-11.5156
▁はっき	-11.5156
▁wrong	-11.5156
▁遺構	-11.5157
▁printing	-11.5158
甲	-11.5159
▁strings	-11.5161
tsubo	-11.5164
▁My	-11.5166
▁impos	-11.5166
gh	-11.5166
▁東側	-11.5166
▁革	-11.5169
▁特色	-11.5172
大兄	-11.5173
▁東福	-11.5174
▁方式	-11.5177
▁delivered	-11.5177
▁Ou	-11.5182
▁seii	-11.5183
▁Shoen	-11.5184
▁鳳	-11.5189
▁automatic	-11.5191
▁suspended	-11.5191
▁諏訪	-11.5191
孤	-11.5191
迷	-11.5191
▁互い	-11.5191
▁loss	-11.5192
▁嗣子	-11.5192
▁Life	-11.5192
築	-11.5192
▁しゅう	-11.5194
▁beans	-11.5195
▁texts	-11.5195
▁飛び	-11.5196
▁recommendation	-11.5197
▁振り	-11.5202
▁fully	-11.5203
▁withdraw	-11.5203
▁Guard	-11.5206
▁multi	-11.521
▁移行	-11.5211
▁大王	-11.5212
はり	-11.5224
▁hunt	-11.5227
▁suspect	-11.5227
▁riot	-11.5227
▁sightsee	-11.5227
▁東洋	-11.5229
▁choja	-11.523
▁chigyo	-11.5231
厚	-11.5231
relat	-11.5232
▁高山	-11.5232
▁aged	-11.5233
▁土器	-11.5234
▁Sojo	-11.5236
▁西側	-11.5238
▁明神	-11.5239
▁三千	-11.5239
▁sheet	-11.524
▁Shoko	-11.5243
east	-11.5243
telling	-11.5246
▁狂	-11.525
gaoka	-11.5253
▁extra	-11.5254
▁burning	-11.5257
▁すけ	-11.5259
▁locomotive	-11.5262
困	-11.5262
▁輩出	-11.5262
▁和睦	-11.5263
▁加茂	-11.5263
▁権現	-11.5265
▁cool	-11.5265
劇	-11.5266
▁Kuji	-11.5267
医	-11.5267
独	-11.5267
▁カー	-11.5268
▁絶え	-11.5269
▁worth	-11.5271
▁Germany	-11.5271
▁奨	-11.5272
▁Jiro	-11.5274
ろん	-11.5274
▁Yorimasa	-11.5276
▁教義	-11.5277
▁Kanei	-11.5281
▁方形	-11.5285
▁先立	-11.5291
▁assume	-11.5292
▁sango	-11.5292
▁coup	-11.5293
▁Ason	-11.5293
▁Shaku	-11.5294
閥	-11.5296
▁resist	-11.5297
▁faced	-11.5297
▁England	-11.5298
▁contact	-11.5298
▁dominant	-11.5298
廉	-11.5298
▁grill	-11.5298
▁vow	-11.5298
▁倒れ	-11.5298
▁Chikuzen	-11.5299
▁Peers	-11.53
織	-11.5302
共	-11.5303
▁終え	-11.5304
▁Hoko	-11.5305
▁KANO	-11.5307
▁千代	-11.5309
▁葵	-11.5316
▁Class	-11.5317
▁strict	-11.5317
▁chair	-11.532
▁丞	-11.5325
▁enem	-11.5326
lementary	-11.5332
▁埋葬	-11.5333
▁貢献	-11.5333
兆	-11.5333
拾	-11.5333
▁Saburo	-11.5333
桶	-11.5333
▁蒲生	-11.5333
▁叡山	-11.5333
▁危険	-11.5333
▁遣唐	-11.5334
ファ	-11.5335
▁exten	-11.5335
丈	-11.5337
享	-11.5338
討	-11.5339
援	-11.5339
level	-11.534
▁Seimei	-11.5342
▁会館	-11.5344
off	-11.5345
▁Im	-11.5347
▁enabl	-11.535
▁御殿	-11.5352
▁一帯	-11.5356
▁Hosho	-11.5356
▁originate	-11.5362
▁府道	-11.5368
▁complex	-11.5369
▁cotton	-11.5369
▁industrial	-11.5369
▁recruit	-11.5369
▁世阿弥	-11.5369
核	-11.5369
▁消息	-11.537
▁Vol	-11.5371
▁布教	-11.5371
▁proper	-11.5371
▁移住	-11.5372
陰	-11.5372
▁高槻	-11.5373
pre	-11.5375
▁1958	-11.5376
泰	-11.5377
景勝	-11.5377
▁天慶	-11.5378
▁Usa	-11.5379
▁弔	-11.5379
▁Bay	-11.5379
lit	-11.5382
shes	-11.5388
▁performers	-11.5388
ppa	-11.5391
▁中務	-11.5394
▁Wei	-11.5403
構	-11.5404
▁candidate	-11.5405
▁fundamental	-11.5405
獣	-11.5405
▁租税	-11.5405
▁組合	-11.5407
ズム	-11.5408
▁離宮	-11.5409
▁1936	-11.541
▁褌	-11.5416
斉	-11.5416
リット	-11.5419
▁天長	-11.5419
▁necessari	-11.5422
▁urg	-11.543
▁宗盛	-11.5431
kabu	-11.5438
仰	-11.5439
曽	-11.544
▁Ogasawara	-11.5441
▁Shogoinoge	-11.5441
掃	-11.5441
▁Hikaru	-11.5441
▁grass	-11.5441
▁Controller	-11.5441
▁Seishi	-11.5441
▁題材	-11.5442
▁野菜	-11.5442
▁separation	-11.5443
▁宝亀	-11.5443
▁盆地	-11.5444
▁彰	-11.5444
▁大化	-11.5444
▁子爵	-11.5444
▁donation	-11.5447
▁並び	-11.5448
▁神名	-11.5449
▁Takatsuki	-11.5449
fune	-11.5449
鶴	-11.545
raid	-11.5452
▁Yi	-11.5454
▁catch	-11.5456
▁tendenc	-11.5462
haka	-11.5462
▁250	-11.5462
▁Konin	-11.5462
▁tied	-11.5468
▁三井	-11.5469
▁従事	-11.547
▁circulat	-11.5474
認	-11.5474
▁confront	-11.5475
摂	-11.5477
▁Uzumasa	-11.5478
▁horizontal	-11.5478
▁捉え	-11.5478
甚	-11.5478
祓	-11.5478
鼻	-11.5478
▁ASANO	-11.5478
▁betray	-11.5478
▁medium	-11.5478
▁運賃	-11.5478
▁MIURA	-11.5478
▁careful	-11.5479
▁Kagekatsu	-11.548
▁東大寺	-11.5483
▁実家	-11.5487
cens	-11.5489
▁宮家	-11.5489
▁大橋	-11.5489
▁募	-11.549
四	-11.549
▁judg	-11.5497
SAKI	-11.5508
▁rebel	-11.5509
▁occupation	-11.5514
▁recognition	-11.5514
▁wild	-11.5514
檀	-11.5514
▁potato	-11.5514
▁earthenware	-11.5514
▁奉公	-11.5514
▁名目	-11.5516
▁prize	-11.5516
▁原型	-11.5518
▁到	-11.5522
笠	-11.5524
fuda	-11.5528
▁excavation	-11.5535
▁1181	-11.5537
門徒	-11.554
▁prepare	-11.5547
▁梁	-11.5549
▁Chapter	-11.555
▁GOTO	-11.555
▁atmosphere	-11.555
▁liquor	-11.555
▁strategy	-11.555
▁twelfth	-11.555
もそも	-11.555
▁彫刻	-11.555
▁voice	-11.555
▁sharp	-11.5551
▁Bingo	-11.5551
▁描写	-11.5551
▁伊東	-11.5554
▁台頭	-11.5555
ZA	-11.5556
▁Hida	-11.5562
勇	-11.5562
吹	-11.5562
▁最上	-11.5562
▁名跡	-11.5565
▁借	-11.5569
▁tip	-11.5569
▁damaged	-11.557
ども	-11.5574
▁Coup	-11.5578
▁取り入	-11.558
shiyori	-11.5586
▁affiliat	-11.5587
▁banquet	-11.5587
▁equipp	-11.5587
▁ordinance	-11.5587
▁railroad	-11.5587
▁switch	-11.5587
惑	-11.5587
▁alternate	-11.5587
kku	-11.5588
▁動員	-11.5589
▁群馬	-11.5589
▁語源	-11.5591
▁preservation	-11.5593
▁Sutoku	-11.5594
▁Nohgaku	-11.5597
▁行列	-11.5599
▁忠臣	-11.5599
▁Keishin	-11.56
▁strictly	-11.5603
▁政元	-11.5604
▁大河	-11.5605
▁義時	-11.5607
shuku	-11.5609
gasa	-11.5617
vity	-11.5618
欧	-11.5621
gake	-11.5623
▁engineer	-11.5624
▁prime	-11.5624
▁monarch	-11.5624
▁終了	-11.5624
▁birthplace	-11.5625
▁failure	-11.5625
▁大島	-11.5625
▁皇居	-11.5627
▁experienc	-11.5627
▁Keifuku	-11.5627
stating	-11.5633
鹿	-11.5634
US	-11.5635
▁Ushi	-11.5636
▁死者	-11.5637
▁1336	-11.564
▁1598	-11.5641
▁恭	-11.5641
zume	-11.5642
▁item	-11.5643
▁wakashu	-11.5644
▁北山	-11.565
▁国史	-11.5651
▁Being	-11.5653
▁箸	-11.566
▁paternal	-11.5661
▁顧問	-11.5661
髷	-11.5661
▁Shitenno	-11.5661
▁Chugoku	-11.5663
ctivity	-11.5663
▁住居	-11.5663
▁Representatives	-11.5664
▁eleventh	-11.5664
▁SATO	-11.5666
▁尽く	-11.5669
▁頼通	-11.5671
▁まつり	-11.5671
灯	-11.5673
丘	-11.5674
▁胴	-11.5675
▁八代	-11.5676
▁arrival	-11.5677
▁従軍	-11.5682
▁5000	-11.569
gara	-11.5691
架	-11.5693
itsu	-11.5697
▁Kitakinki	-11.5698
▁Picture	-11.5698
▁poison	-11.5698
▁prominent	-11.5698
▁Regent	-11.5698
▁solid	-11.5698
▁cloud	-11.5699
▁少輔	-11.5699
▁OTA	-11.5702
▁1917	-11.5704
▁Like	-11.5704
▁grown	-11.5706
▁産地	-11.5706
▁Sama	-11.5707
詣	-11.5707
▁東南	-11.5707
ちに	-11.5709
▁先代	-11.5709
▁sleeves	-11.5709
▁むら	-11.5713
▁猛	-11.5716
▁ゆえ	-11.572
▁Kashi	-11.5721
▁sail	-11.5721
▁Don	-11.5722
▁separately	-11.5724
▁devot	-11.5724
▁高島	-11.5729
▁Butsu	-11.5729
▁Che	-11.5731
▁Kebiishi	-11.5735
▁smooth	-11.5735
▁wrapped	-11.5735
▁肖像	-11.5735
雇	-11.5735
▁tatami	-11.5735
▁Initial	-11.5735
▁Russo	-11.5735
▁thread	-11.5735
▁恩賞	-11.5735
▁multiple	-11.5735
▁安堵	-11.5736
▁松山	-11.5736
▁修験	-11.5737
▁勅使	-11.5737
▁Nitta	-11.5737
▁参戦	-11.5739
▁電化	-11.574
▁Honnoji	-11.5745
▁願い	-11.5747
▁mill	-11.5747
low	-11.5748
▁operate	-11.5748
▁オー	-11.5749
冠	-11.575
▁vari	-11.5755
▁Afterwards	-11.5758
▁時宗	-11.5759
▁statement	-11.5759
▁Ninna	-11.5759
▁capture	-11.5763
▁松永	-11.5765
▁Koyo	-11.5765
▁achieve	-11.5769
なし	-11.577
▁spots	-11.5771
滞	-11.5772
Defense	-11.5772
▁NITTA	-11.5772
▁pork	-11.5772
杵	-11.5772
枠	-11.5772
▁Commission	-11.5772
▁unusual	-11.5772
▁NOMURA	-11.5772
▁beef	-11.5772
▁renga	-11.5773
▁支給	-11.5774
INO	-11.5775
nomi	-11.5777
▁皇統	-11.5778
▁発着	-11.5778
▁三国	-11.578
▁pit	-11.5786
▁金沢	-11.5787
▁Shinbun	-11.5788
尼	-11.5789
where	-11.5789
▁secure	-11.579
her	-11.579
▁溶	-11.5792
▁movies	-11.5794
▁educat	-11.5806
預	-11.5807
hin	-11.5808
▁ISBN	-11.581
▁equipment	-11.581
▁ぎょう	-11.581
▁グループ	-11.581
巌	-11.581
賦	-11.581
▁keyhole	-11.581
▁瀬戸	-11.581
▁因幡	-11.581
▁narrative	-11.581
▁Kiyomizu	-11.5811
▁Mandokoro	-11.5812
▁キロ	-11.5812
▁木戸	-11.5815
biko	-11.5818
▁Gunma	-11.5818
▁共和	-11.5826
▁呪	-11.5826
▁諡	-11.5828
▁株	-11.5828
▁駅舎	-11.5831
▁Toka	-11.5834
▁1568	-11.5835
chiku	-11.5836
▁hour	-11.5836
▁プラ	-11.5837
fold	-11.5837
吸	-11.5847
▁Lieutenant	-11.5847
▁Official	-11.5847
▁election	-11.5847
▁speech	-11.5847
▁Can	-11.5847
▁persuad	-11.5847
▁緊	-11.5848
▁芝居	-11.5848
▁1962	-11.5853
▁1961	-11.5853
▁Katsumoto	-11.5854
背	-11.5861
件	-11.5862
没	-11.5862
早川	-11.5864
▁Shinko	-11.5866
▁copi	-11.5869
▁石室	-11.5871
▁enforce	-11.5874
業務	-11.5875
.6	-11.5876
yang	-11.5877
▁rarely	-11.5878
▁protest	-11.5885
▁reinforcement	-11.5885
▁京田辺	-11.5885
擬	-11.5885
牟	-11.5885
穏	-11.5885
蓄	-11.5885
▁task	-11.5885
▁curve	-11.5885
▁adapt	-11.5886
▁Chujo	-11.5886
▁blow	-11.5886
▁規制	-11.5886
▁狙	-11.5887
▁龍馬	-11.5887
ッチ	-11.589
▁SHIN	-11.5892
▁vol	-11.5895
▁当て	-11.5897
張り	-11.5899
▁萩	-11.59
▁三宅	-11.5902
辻	-11.5904
▁Hoshi	-11.5905
▁1570	-11.5907
書き	-11.5908
▁investigat	-11.5912
▁nav	-11.5914
▁出世	-11.5918
.4	-11.5919
駆	-11.5922
▁Deputy	-11.5923
▁proclamation	-11.5923
▁remnant	-11.5923
▁サービス	-11.5923
▁措置	-11.5923
▁太秦	-11.5923
▁SAKAI	-11.5923
▁意思	-11.5923
▁壁画	-11.5924
▁Rennyo	-11.5924
▁取引	-11.5925
▁佐藤	-11.5925
▁Fire	-11.5925
▁realm	-11.5927
▁1938	-11.5927
▁園城	-11.5927
▁Zai	-11.5932
▁選定	-11.5936
ARA	-11.5941
創	-11.5943
▁駒	-11.5944
▁南方	-11.5945
hyaku	-11.5945
▁soybean	-11.5961
▁stamp	-11.5961
▁straw	-11.5961
釣	-11.5961
▁vertical	-11.5961
▁debate	-11.5961
▁発酵	-11.5962
▁ISHIDA	-11.5962
▁執事	-11.5963
▁繊	-11.5964
▁describ	-11.5964
▁宣言	-11.5964
▁1939	-11.5966
▁鵜	-11.5968
▁おう	-11.597
▁Toko	-11.597
▁確か	-11.5972
▁旅行	-11.5973
▁地歌	-11.5973
▁×	-11.5973
▁中川	-11.5974
▁couple	-11.5975
▁exchang	-11.5976
manship	-11.5979
▁教学	-11.598
琴	-11.5982
self	-11.5988
▁坪	-11.5991
biki	-11.5994
▁battlefield	-11.5999
▁mobiliz	-11.5999
▁regain	-11.5999
▁みなもと	-11.5999
▁製品	-11.6001
▁脚本	-11.6001
▁shoot	-11.6002
▁治天	-11.6003
▁君主	-11.6007
▁1859	-11.6012
▁頼政	-11.6018
▁Mr	-11.6019
▁sources	-11.6023
track	-11.6025
▁別れ	-11.6027
eath	-11.603
▁実行	-11.6033
▁結び	-11.6034
▁regardles	-11.6037
▁Sanskrit	-11.6037
▁purple	-11.6037
▁デザイン	-11.6037
巣	-11.6037
骸	-11.6037
▁倒幕	-11.6037
▁夫婦	-11.6038
▁Danjuro	-11.6038
シア	-11.604
▁岡崎	-11.604
▁1983	-11.6042
▁sixty	-11.6042
nokuni	-11.6042
▁Music	-11.6043
▁孔	-11.6045
▁merc	-11.6046
▁入門	-11.6047
▁利家	-11.6051
ngry	-11.6052
ランド	-11.6057
酸	-11.606
▁1601	-11.6063
aunt	-11.6065
ばん	-11.6066
sashi	-11.6073
促	-11.6076
▁Memorial	-11.6076
▁circular	-11.6076
烏	-11.6076
▁nurse	-11.6076
▁塔頭	-11.6078
▁檜	-11.608
水尾	-11.6081
▁gagaku	-11.6081
▁Yasutoki	-11.6081
▁Yasaka	-11.6082
▁researchers	-11.6084
▁Seika	-11.6084
▁文様	-11.6086
▁soil	-11.6089
▁doll	-11.6094
▁isolat	-11.6097
▁若年	-11.6098
山縣	-11.6106
KATA	-11.6111
▁Ver	-11.6113
まえ	-11.6114
▁deteriorat	-11.6114
▁British	-11.6114
▁Taiheiki	-11.6114
粒	-11.6114
▁哲学	-11.6114
▁ogre	-11.6114
▁afterwards	-11.6115
▁enhanc	-11.6115
▁apply	-11.6115
▁遺産	-11.6119
▁抱え	-11.612
▁chain	-11.612
▁Amago	-11.6125
ency	-11.6126
▁Wakoku	-11.6126
fuji	-11.6129
降	-11.6137
明け	-11.6138
翁	-11.6139
床	-11.6139
▁Takechi	-11.6146
▁constitut	-11.6147
▁つな	-11.6148
▁MAKINO	-11.6153
呈	-11.6153
薦	-11.6153
雁	-11.6153
▁fashion	-11.6153
▁Early	-11.6153
▁育て	-11.6153
▁Qu	-11.6153
▁disturbance	-11.6154
▁男爵	-11.6154
▁乗り入れ	-11.6154
▁下賜	-11.6155
▁ぞう	-11.6155
▁低下	-11.6157
fri	-11.6157
▁growth	-11.6159
▁駿	-11.6161
▁looking	-11.6162
▁Waki	-11.6163
SAI	-11.6167
kotoba	-11.6168
▁1500	-11.6168
拝	-11.6176
▁Suiko	-11.6181
▁大会	-11.6181
▁社長	-11.6185
▁holidays	-11.6186
▁おそ	-11.6187
針	-11.619
▁ultimate	-11.6192
▁Okuninushi	-11.6192
▁hometown	-11.6192
▁sliding	-11.6192
鳩	-11.6192
▁kingdom	-11.6192
▁extension	-11.6192
▁Unlike	-11.6193
▁過ご	-11.6193
▁Recent	-11.6194
▁久秀	-11.6195
▁どこ	-11.6195
▁追い込	-11.6197
▁chronicle	-11.6197
▁南都	-11.6198
▁Kishi	-11.6203
▁understanding	-11.6209
▁1575	-11.6211
chiken	-11.6216
▁attribut	-11.6219
▁Komei	-11.6221
▁馬子	-11.6227
▁sin	-11.6229
▁Muko	-11.6229
▁Justice	-11.6231
▁Ordinance	-11.6231
▁execution	-11.6231
▁executive	-11.6231
▁システム	-11.6231
▁プロダク	-11.6231
聴	-11.6231
陳	-11.6231
▁salary	-11.6231
▁basin	-11.6232
▁養父	-11.6232
▁警備	-11.6232
▁八十	-11.6235
▁平田	-11.624
▁Hizen	-11.624
▁兼実	-11.6241
▁Umako	-11.6246
▁holy	-11.6248
▁富山	-11.6249
違	-11.6253
▁テー	-11.6254
峯	-11.6258
妙	-11.6258
▁attendants	-11.6259
▁substitute	-11.6261
▁fun	-11.6266
テン	-11.6266
bime	-11.6268
▁Agriculture	-11.627
▁Shakyamuni	-11.627
▁freight	-11.627
▁有栖川	-11.627
啓	-11.627
械	-11.627
棺	-11.627
▁brand	-11.627
▁architectural	-11.627
▁弥勒	-11.627
▁Genko	-11.627
▁浪人	-11.6271
▁admitted	-11.6271
▁屈	-11.6272
▁連盟	-11.6272
▁主演	-11.6273
▁biwa	-11.6274
▁高め	-11.6275
▁細か	-11.628
▁長浜	-11.628
▁Miyagi	-11.6287
サー	-11.6288
▁1595	-11.6289
buri	-11.6294
▁passenger	-11.6296
隔	-11.6299
▁observ	-11.63
▁Takamori	-11.6302
Na	-11.6306
▁花山	-11.6307
gawara	-11.6308
▁Liberal	-11.631
▁SUZUKI	-11.631
▁ceramic	-11.631
▁respond	-11.631
▁みょう	-11.631
ちゅう	-11.631
▁sky	-11.631
▁lodg	-11.631
▁筑紫	-11.631
▁弓矢	-11.631
▁訪問	-11.631
▁Sacr	-11.631
▁紅葉	-11.6311
▁彦根	-11.6311
▁金銀	-11.6311
▁hairstyle	-11.6312
▁Shimane	-11.6313
▁Nikka	-11.6313
▁島根	-11.6314
▁職業	-11.6319
ASA	-11.6321
▁成分	-11.6328
▁1614	-11.633
▁regulation	-11.6336
宇	-11.6339
へ	-11.6339
▁本所	-11.6342
▁Interior	-11.6349
▁bloom	-11.6349
▁outstanding	-11.6349
串	-11.6349
吟	-11.6349
郊	-11.6349
▁創始	-11.6349
▁舞踊	-11.635
▁arose	-11.635
▁push	-11.6351
▁素材	-11.6351
▁弓道	-11.6356
▁久世	-11.6357
▁agency	-11.6361
iro	-11.6364
▁こん	-11.6364
ifying	-11.6368
出し	-11.6372
▁Katsuragi	-11.6372
▁一家	-11.6384
往	-11.6389
≒	-11.6389
▁Appoint	-11.6389
▁advice	-11.6389
▁parallel	-11.6389
▁wives	-11.6389
▁芹沢	-11.6389
凶	-11.6389
▁忘れ	-11.6389
ージ	-11.6389
▁Nakatsukasa	-11.6389
▁Kanazawa	-11.6389
▁rival	-11.639
▁移築	-11.639
▁医師	-11.639
▁syllables	-11.6391
▁不可	-11.6391
ルト	-11.6391
▁memor	-11.6394
▁佐久	-11.6395
▁seasonal	-11.6395
▁長門	-11.6398
▁Saigoku	-11.6398
▁Tenpo	-11.6401
▁housing	-11.6402
TSUKI	-11.6403
▁commissioner	-11.641
▁源平	-11.6413
▁清原	-11.6418
▁tie	-11.642
▁Kobo	-11.642
▁すら	-11.6423
宜	-11.6429
阻	-11.6429
▁masterpiece	-11.6429
▁授与	-11.643
▁performer	-11.643
▁Betto	-11.643
▁しかも	-11.6431
▁現象	-11.6432
▁Nagahama	-11.6432
▁城郭	-11.6433
▁1916	-11.6435
▁兼務	-11.6438
▁青年	-11.6446
▁decide	-11.6449
▁五代	-11.645
▁Nanto	-11.6451
▁出産	-11.6454
▁草子	-11.6459
▁部門	-11.6467
哲	-11.6469
▁Film	-11.6469
▁般若	-11.6469
液	-11.6469
痛	-11.6469
▁構想	-11.6469
▁Joruri	-11.6469
▁timetable	-11.6469
▁備後	-11.6469
▁主催	-11.6469
▁交わ	-11.6469
▁calm	-11.6469
▁奉還	-11.6469
▁附属	-11.6469
▁キャ	-11.647
▁翻	-11.647
▁Hatamoto	-11.6471
▁wheat	-11.6473
▁遺言	-11.6473
▁Omikami	-11.6474
▁吉宗	-11.6475
▁Chiyo	-11.6486
▁神職	-11.6488
▁Nakatsu	-11.6494
▁sleeve	-11.6497
▁Nakano	-11.6499
塩	-11.6501
滝	-11.6502
▁香り	-11.6505
onsen	-11.6506
むね	-11.6508
▁1179	-11.6509
▁dragon	-11.6509
▁エピソード	-11.6509
呉	-11.6509
杖	-11.6509
▁繋が	-11.6509
▁閑院	-11.6509
▁supplement	-11.6509
▁garment	-11.6509
▁violat	-11.6509
▁慣習	-11.6509
▁ゆかり	-11.651
▁再開	-11.6511
▁茨	-11.6512
▁条例	-11.6514
▁ridge	-11.6514
▁youth	-11.6515
▁Ienari	-11.6516
▁robe	-11.6517
▁武術	-11.6517
▁最中	-11.652
gusa	-11.6522
▁Higher	-11.6523
▁ideal	-11.6523
▁Yin	-11.653
▁Teika	-11.6533
▁valu	-11.6535
▁German	-11.6539
釈	-11.6542
▁media	-11.6543
支	-11.6543
暮	-11.6548
▁Autumn	-11.6549
▁ROKKAKU	-11.6549
▁alternative	-11.6549
▁光源氏	-11.6549
欽	-11.6549
沙汰	-11.6549
▁slope	-11.6549
歓	-11.6549
穢	-11.6549
▁伯爵	-11.655
▁解決	-11.655
HA	-11.655
▁YAMADA	-11.6551
To	-11.6552
▁景時	-11.6554
止め	-11.6554
▁介入	-11.6554
kasu	-11.6555
▁Akiko	-11.6559
byo	-11.6563
▁fudai	-11.6567
▁Toei	-11.6571
▁小川	-11.6577
▁reside	-11.6578
っか	-11.6581
処	-11.6584
▁Scen	-11.6587
▁Honno	-11.6587
▁calligrapher	-11.659
▁conquest	-11.659
▁diameter	-11.659
▁杜氏	-11.659
▁組み合わせ	-11.659
凝	-11.659
柿	-11.659
稀	-11.659
▁Inoue	-11.659
▁奉仕	-11.659
▁ヒメ	-11.6591
▁cub	-11.6592
▁Hikone	-11.6593
▁Plan	-11.6594
imina	-11.6594
▁寛平	-11.6596
▁Motonari	-11.66
▁申し	-11.66
▁広義	-11.6609
▁mud	-11.6612
▁1200	-11.6617
▁Tri	-11.6617
▁Aya	-11.6619
gimi	-11.662
▁scar	-11.6622
農	-11.6625
▁Koken	-11.6625
▁week	-11.663
▁Shimousa	-11.663
▁convenience	-11.663
▁tunnel	-11.663
患	-11.663
皿	-11.663
胸	-11.663
▁抑え	-11.663
▁蓮如	-11.6631
回り	-11.6632
▁保管	-11.6632
▁leadership	-11.6632
▁劇場	-11.6633
▁Shoten	-11.6635
▁妙法	-11.6635
tification	-11.664
▁高市	-11.6644
▁Keihanshin	-11.6645
▁Kodo	-11.665
▁大同	-11.665
隠	-11.6667
▁WATANABE	-11.6671
▁lantern	-11.6671
▁インターチェンジ	-11.6671
脂	-11.6671
貌	-11.6671
▁芸妓	-11.6671
▁Norinaga	-11.6679
▁空手	-11.668
▁新政	-11.6684
▁Kitayama	-11.6685
▁Tenka	-11.6686
▁Shika	-11.669
▁軍人	-11.6693
▁五山	-11.6702
▁holder	-11.6704
▁Seto	-11.6707
four	-11.6709
▁Exhibition	-11.6712
▁Various	-11.6712
▁adjust	-11.6712
▁sixteen	-11.6712
▁天平勝宝	-11.6712
栃	-11.6712
▁portray	-11.6712
▁外戚	-11.6713
▁Benkei	-11.6714
▁Transportation	-11.6714
▁Sukeroku	-11.6718
▁SHIMO	-11.6719
▁studio	-11.6719
▁みち	-11.6719
ーズ	-11.672
making	-11.6721
▁Tu	-11.6723
▁Shichijo	-11.6724
▁阿部	-11.6725
▁buke	-11.6726
▁padd	-11.6728
▁Soseki	-11.673
▁神護	-11.673
▁Kosei	-11.6731
▁ごく	-11.6734
▁1467	-11.6735
ます	-11.6736
▁workers	-11.6737
▁大軍	-11.6737
▁Hirano	-11.6742
▁weapon	-11.6743
▁pun	-11.6747
▁burn	-11.6749
▁大手	-11.6751
細	-11.6751
▁一派	-11.6753
▁YAMAGATA	-11.6753
▁complicated	-11.6753
▁敗戦	-11.6754
▁試合	-11.6755
▁associate	-11.6761
etary	-11.6763
▁select	-11.6767
ごと	-11.6783
▁大分	-11.6784
▁KATSU	-11.6791
旗	-11.6793
飼	-11.6795
▁AKAMATSU	-11.6795
▁Counselor	-11.6795
▁Mahayana	-11.6795
▁Through	-11.6795
▁Sarugaku	-11.6795
▁朽木	-11.6795
▁構内	-11.6795
▁mount	-11.6795
▁風俗	-11.6797
▁lotus	-11.6798
▁遊女	-11.6799
▁dramatic	-11.6799
▁selection	-11.6801
▁everyday	-11.6802
▁Yoriyuki	-11.6804
じゅ	-11.6807
▁Yamana	-11.6811
▁Tokuso	-11.6811
▁Kobu	-11.6814
▁海上	-11.6815
▁八木	-11.6819
▁Teishi	-11.6819
▁adjacent	-11.682
▁initial	-11.682
▁Kari	-11.6826
▁Saiin	-11.6834
國	-11.6836
course	-11.6836
▁Arisugawa	-11.6836
耆	-11.6836
▁Sword	-11.6836
▁stretch	-11.6836
▁煎茶	-11.6836
曳	-11.6836
▁祈祷	-11.6836
▁Heaven	-11.6836
▁Kudara	-11.6836
▁Omote	-11.6836
▁debt	-11.6837
▁Okazaki	-11.6837
▁imagin	-11.6837
▁Mochihito	-11.6838
ネマ	-11.6839
▁編集	-11.6839
▁inspection	-11.6841
▁寺町	-11.6843
▁元老	-11.6843
▁dwelling	-11.6848
▁Dance	-11.6849
▁elevated	-11.685
▁designation	-11.6851
▁Kuroda	-11.6852
▁Himeji	-11.6856
▁1580	-11.6856
ぼう	-11.6857
▁suffering	-11.6857
父子	-11.686
▁Sonno	-11.6865
▁Hondo	-11.6866
▁Kawara	-11.6866
晴明	-11.6872
▁oblig	-11.6875
▁premises	-11.6878
▁Engineering	-11.6878
▁Treasury	-11.6878
▁じんじゃ	-11.6878
▁饅頭	-11.6878
累	-11.6878
蕃	-11.6878
▁SAKAMOTO	-11.6878
▁commut	-11.6878
▁離脱	-11.6878
▁banned	-11.6878
▁Protect	-11.6878
General	-11.6878
戻	-11.6878
画家	-11.6879
デン	-11.6884
numa	-11.6885
▁以仁	-11.6885
▁学習	-11.6886
▁中間	-11.6886
▁突き	-11.6888
▁1853	-11.6895
▁村田	-11.6896
▁せよ	-11.6897
▁天暦	-11.6898
▁Kama	-11.69
っぽ	-11.6904
story	-11.6905
▁Kansei	-11.6906
▁bak	-11.6912
槻	-11.6915
條	-11.6918
袖	-11.6918
▁happi	-11.692
▁syllabar	-11.692
▁wound	-11.692
▁胡弓	-11.692
償	-11.692
汚	-11.692
熙	-11.692
▁柴田	-11.692
▁contemporary	-11.692
▁検討	-11.692
▁追加	-11.692
nuki	-11.6921
余	-11.6921
▁fisc	-11.6921
▁急死	-11.6921
▁procession	-11.693
▁社殿	-11.6931
▁sat	-11.6933
▁隠れ	-11.6934
▁御霊	-11.6934
▁経路	-11.6936
▁京津	-11.6941
▁constitution	-11.6952
▁authoriz	-11.6956
▁Dokyo	-11.6956
為	-11.6958
洋	-11.6959
▁太上	-11.6961
▁sufficient	-11.6962
逮	-11.6962
▁Kyotanabe	-11.6962
▁Personal	-11.6962
▁TAKATSUKASA	-11.6962
▁expulsion	-11.6962
fensive	-11.6962
▁携わ	-11.6962
▁候補	-11.6962
ON	-11.6962
Heian	-11.6964
▁Sakamoto	-11.6964
▁弁官	-11.6964
count	-11.6966
▁Gree	-11.6967
▁pack	-11.6971
▁Oshima	-11.6975
▁curse	-11.6977
▁Soun	-11.6979
陽明	-11.698
▁Tadamasa	-11.6984
▁Kanjo	-11.699
▁Gai	-11.6996
8	-11.6997
▁Daisho	-11.6997
▁organiz	-11.7001
▁abbot	-11.7004
▁accommodat	-11.7004
▁independence	-11.7004
▁ラーメン	-11.7004
▁披露	-11.7004
▁沿い	-11.7004
▁預け	-11.7004
▁average	-11.7004
▁佐竹	-11.7005
▁肥前	-11.7006
免	-11.7007
▁僧都	-11.7009
▁人事	-11.7011
▁Ye	-11.7014
▁役目	-11.7017
▁103	-11.7025
▁exceptional	-11.7025
▁1586	-11.7025
▁Suwa	-11.7025
MORI	-11.7025
▁involve	-11.7033
▁手法	-11.7033
もの	-11.7033
▁Momo	-11.7037
▁アイ	-11.704
▁promot	-11.7043
▁walking	-11.7044
▁Koshu	-11.7044
▁Izanagi	-11.7046
▁KTR	-11.7046
▁Manchuria	-11.7046
▁photograph	-11.7046
▁キリシタン	-11.7046
▁Present	-11.7046
▁丁銀	-11.7046
▁repli	-11.7047
堀	-11.7047
truck	-11.7047
▁insert	-11.7048
▁panel	-11.7048
▁地震	-11.7049
▁祭礼	-11.7049
▁Katsuyori	-11.7051
▁copies	-11.7052
▁Harumoto	-11.7052
うけ	-11.7054
▁require	-11.7058
▁後ろ	-11.7065
▁transmitt	-11.7067
▁カラ	-11.7073
q	-11.7075
▁Kibi	-11.708
▁Saigu	-11.7084
▁Ceremony	-11.7089
▁KITABATAKE	-11.7089
▁Leaves	-11.7089
▁biography	-11.7089
▁detached	-11.7089
▁weather	-11.7089
▁稽古	-11.7089
▁mutual	-11.7089
▁KANSAI	-11.7089
▁近隣	-11.7089
▁板垣	-11.709
▁貞享	-11.709
▁ご飯	-11.709
▁佐渡	-11.709
▁stable	-11.709
▁courtier	-11.709
▁のりば	-11.709
▁引き続	-11.7091
▁distinction	-11.7092
▁法主	-11.7093
▁弘化	-11.7093
廻	-11.7094
なか	-11.7094
寄せ	-11.7096
▁令制	-11.7096
▁衆生	-11.7098
▁手紙	-11.7098
▁紙本	-11.71
▁半分	-11.7101
▁negotiat	-11.7102
大寺	-11.7103
▁resignation	-11.7104
▁官制	-11.7109
▁Design	-11.7114
▁大変	-11.7114
▁正宗	-11.7116
back	-11.7118
▁remove	-11.7123
▁remov	-11.7129
▁Origin	-11.713
▁divid	-11.7131
腐	-11.7131
輩	-11.7132
▁Hatakeyama	-11.7132
▁Takarazuka	-11.7132
▁broadcast	-11.7132
▁essay	-11.7132
哀	-11.7132
症	-11.7132
▁revenge	-11.7132
▁terminal	-11.7132
▁nengu	-11.7132
▁club	-11.7132
▁layout	-11.7133
▁sort	-11.7133
▁習合	-11.7134
▁我が	-11.7135
▁降下	-11.7135
可	-11.7135
玄	-11.7136
▁本部	-11.7138
▁女官	-11.7141
▁Shinsho	-11.7142
▁secur	-11.7144
▁信忠	-11.7144
▁頼盛	-11.7145
▁実態	-11.7146
▁Tax	-11.7146
▁kokujin	-11.7153
▁中京	-11.7153
▁1599	-11.7154
津川	-11.7154
やま	-11.7154
▁Shita	-11.7155
オン	-11.7161
かさ	-11.7163
lia	-11.7166
▁命名	-11.7168
▁Juni	-11.7173
▁Hyuga	-11.7174
▁aristocracy	-11.7174
▁sculpture	-11.7174
▁往来	-11.7175
▁破壊	-11.7175
▁歩兵	-11.7176
▁slow	-11.7177
▁Pond	-11.7177
▁YU	-11.7177
▁方丈	-11.7178
早	-11.7179
▁地獄	-11.718
▁taifu	-11.7181
冬	-11.7181
▁Onmyodo	-11.7182
削	-11.7184
▁王国	-11.7185
▁alter	-11.7187
▁元慶	-11.7189
▁酒井	-11.7194
▁certifi	-11.72
TEI	-11.7202
ざん	-11.7203
▁Jiju	-11.7212
係	-11.7216
▁Brief	-11.7218
▁Tsuchimikado	-11.7218
▁coffin	-11.7218
塵	-11.7218
慎	-11.7218
▁抗争	-11.7218
▁駆け	-11.7218
▁Taika	-11.7219
▁departure	-11.7219
▁ikki	-11.7219
▁Moronao	-11.722
▁Dojo	-11.7223
午	-11.7225
柱	-11.7225
▁住持	-11.7226
5,000	-11.7226
▁並べ	-11.7226
board	-11.723
▁riding	-11.7235
▁モン	-11.7239
▁見な	-11.7244
▁出会	-11.7244
蓮	-11.7252
▁市内	-11.7254
▁公法	-11.7254
▁Hara	-11.726
▁HONDA	-11.7261
▁Painting	-11.7261
▁extinct	-11.7261
▁seventeen	-11.7261
▁往復	-11.7261
猫	-11.7261
鉾	-11.7261
▁ASAKURA	-11.7261
▁育成	-11.7261
▁鵜飼	-11.7261
▁怒り	-11.7261
▁application	-11.7262
▁弾正	-11.7263
▁Kodai	-11.7263
▁付属	-11.7264
▁先祖	-11.7265
▁Susanoo	-11.7265
至	-11.727
振	-11.727
▁Kunai	-11.727
▁新撰	-11.7271
▁香川	-11.7273
▁Yui	-11.7276
HI	-11.7277
▁戦場	-11.7278
▁Enyu	-11.7282
▁speaking	-11.7286
▁Kokuga	-11.7287
▁shoryo	-11.7287
▁trace	-11.729
▁3,000	-11.7297
廊	-11.7304
▁Popular	-11.7304
▁charcoal	-11.7304
▁divination	-11.7304
窯	-11.7304
▁添え	-11.7304
▁連携	-11.7305
▁とくに	-11.7305
▁reproduc	-11.7306
▁創業	-11.7306
▁Konoefu	-11.7309
rry	-11.7311
純	-11.7314
▁得宗	-11.7314
▁Post	-11.7319
▁Jingi	-11.7322
▁Takashima	-11.7328
▁宮崎	-11.7328
▁清朝	-11.7331
擁	-11.7348
▁accumulat	-11.7348
▁thorough	-11.7348
▁橿原	-11.7348
▁敗走	-11.7348
▁Time	-11.7348
▁Sonobe	-11.7348
▁摂家	-11.7348
▁corps	-11.7349
▁Reigen	-11.7352
▁確定	-11.7353
▁robb	-11.7356
▁Futa	-11.7357
考	-11.7357
▁1583	-11.7367
Ho	-11.7372
right	-11.7374
▁バラ	-11.7375
▁Koro	-11.7378
▁アー	-11.7383
▁Honcho	-11.7384
HE	-11.7386
▁absolute	-11.7392
▁Movement	-11.7392
▁participant	-11.7392
▁pottery	-11.7392
▁refined	-11.7392
彌	-11.7392
慕	-11.7392
殆	-11.7392
綴	-11.7392
▁焼酎	-11.7392
▁MATSUNAGA	-11.7392
▁instance	-11.7392
▁horseback	-11.7392
▁borrow	-11.7392
▁Gakko	-11.7395
deemed	-11.7396
▁史実	-11.74
▁impression	-11.7401
▁Kiyomasa	-11.7402
勅	-11.7403
施	-11.7403
tsuma	-11.7407
fall	-11.7408
▁西部	-11.741
▁Aoi	-11.741
▁band	-11.7411
usu	-11.7414
▁北方	-11.7422
落と	-11.7422
▁勝家	-11.7423
top	-11.7426
▁Shokoku	-11.7429
▁中原	-11.743
▁agriculture	-11.7436
▁revenue	-11.7436
狐	-11.7436
靖	-11.7436
▁Mimasaka	-11.7436
▁陵墓	-11.7436
▁friendship	-11.7437
▁衣装	-11.7438
▁宝塚	-11.7438
▁甲賀	-11.7439
▁Fine	-11.7439
nyorai	-11.744
▁scenery	-11.744
▁weaken	-11.744
▁Seventh	-11.7443
▁安全	-11.7444
tsubone	-11.7444
▁豊岡	-11.7445
▁Masayuki	-11.745
▁1854	-11.745
▁Ron	-11.7452
▁同族	-11.7459
▁merger	-11.746
▁cord	-11.7473
▁Goto	-11.7476
syllable	-11.7478
▁initiat	-11.7479
▁cavalry	-11.748
▁Peace	-11.748
▁budget	-11.748
▁miyatsuko	-11.748
▁politician	-11.748
俣	-11.748
▁ancestr	-11.748
▁センチ	-11.748
▁Power	-11.748
▁universities	-11.748
▁jiuta	-11.7481
▁帰還	-11.7481
▁赴任	-11.7482
▁向上	-11.7484
▁rope	-11.7486
▁Bunroku	-11.7486
▁少女	-11.7486
▁安達	-11.7488
▁Nana	-11.749
雷	-11.7494
▁Tomomi	-11.7496
▁左手	-11.7497
clock	-11.75
string	-11.7501
▁Kyudo	-11.7503
.8	-11.7505
▁長屋	-11.7512
▁retain	-11.7515
▁Tsuchi	-11.7516
▁assassin	-11.7521
廷	-11.7522
▁bureau	-11.7525
▁exploit	-11.7525
▁コーヒー	-11.7525
▁タクシー	-11.7525
胎	-11.7525
脳	-11.7525
▁bestowed	-11.7525
▁contrar	-11.7525
▁ダム	-11.7526
▁番組	-11.7526
▁車庫	-11.7527
▁IKE	-11.753
▁府県	-11.753
gakko	-11.7535
麻	-11.7538
以	-11.7538
▁Indian	-11.7546
▁ingredient	-11.7566
▁scen	-11.7567
滋	-11.7569
▁Ceremonial	-11.7569
▁capacity	-11.7569
▁complain	-11.7569
▁wisdom	-11.7569
▁構築	-11.7569
▁取締	-11.757
▁authorities	-11.757
▁布告	-11.757
▁由良	-11.7571
▁歌仙	-11.7571
▁オオ	-11.7571
▁peaceful	-11.7572
▁malt	-11.7573
▁晴元	-11.7574
ウス	-11.7574
記紀	-11.7579
▁birthday	-11.758
▁agent	-11.7583
▁guid	-11.7583
▁Yoshichika	-11.7584
周	-11.7584
押	-11.7585
▁Ukon	-11.7587
▁prosper	-11.7588
▁Junna	-11.7592
▁1584	-11.7594
戦時	-11.76
▁比叡	-11.7611
▁Publish	-11.7614
▁coffee	-11.7614
▁compound	-11.7614
▁meditation	-11.7614
▁需要	-11.7614
喫	-11.7614
枯	-11.7614
▁clay	-11.7614
きゅう	-11.7614
▁roast	-11.7614
▁Kiritsubo	-11.7614
▁dough	-11.7615
▁Construction	-11.7616
▁そん	-11.7616
▁commentary	-11.7616
▁armies	-11.7617
▁Karo	-11.7618
▁Kotai	-11.762
▁手段	-11.7621
▁Tadaoki	-11.7621
▁specialty	-11.7621
輝	-11.7626
▁小姓	-11.7628
寸	-11.7631
▁bit	-11.7632
▁1857	-11.7633
メートル	-11.7633
▁ふさ	-11.7634
kkei	-11.7636
▁1603	-11.7638
▁Muro	-11.764
▁法度	-11.7641
▁Bunka	-11.7642
けん	-11.7645
▁sure	-11.7647
▁Yura	-11.7648
▁Rule	-11.7649
▁四方	-11.7651
▁diver	-11.7656
▁prove	-11.7656
埋	-11.7659
蹴	-11.7659
▁涅槃	-11.7659
叩	-11.7659
峨	-11.7659
暁	-11.7659
湊	-11.7659
▁announcement	-11.7659
▁nyogo	-11.766
▁illustration	-11.766
▁Highway	-11.7661
▁Sometime	-11.7662
▁Qi	-11.7662
hari	-11.7662
▁慶安	-11.7665
▁荒木	-11.7665
▁Roju	-11.7671
▁Roshi	-11.7675
反	-11.7677
Yo	-11.7686
▁1189	-11.7687
▁thirteen	-11.77
震	-11.7701
▁Consort	-11.7704
▁Ritsumeikan	-11.7704
▁journey	-11.7704
▁紛争	-11.7704
妾	-11.7704
慰	-11.7704
藻	-11.7704
▁deploy	-11.7704
▁埋め	-11.7704
▁radical	-11.7705
▁防衛	-11.7706
▁情勢	-11.7706
▁variation	-11.7708
▁大炊	-11.7708
▁Nanzen	-11.771
▁improve	-11.771
▁有職	-11.7712
yumi	-11.7717
ッド	-11.7718
写	-11.7719
▁Riku	-11.7723
逸	-11.7723
片	-11.7723
quality	-11.7725
▁神器	-11.7735
療	-11.775
抑	-11.775
▁Commentary	-11.775
▁uncertain	-11.775
寅	-11.775
楊	-11.775
▁趣味	-11.775
▁Career	-11.775
▁brown	-11.775
▁隠岐	-11.775
▁signature	-11.775
▁典範	-11.775
wari	-11.7751
▁パン	-11.7752
▁執行	-11.7755
▁養成	-11.7756
▁Aza	-11.7756
▁communication	-11.7757
▁小浜	-11.7758
▁yokai	-11.7759
▁Nakagyo	-11.7759
▁lake	-11.7759
▁跡地	-11.7761
▁spend	-11.7763
▁Tenman	-11.7764
課	-11.777
▁Wu	-11.7772
ーム	-11.7776
▁天津	-11.7788
禅師	-11.7791
▁Study	-11.7796
▁acknowledg	-11.7796
▁hospital	-11.7796
▁kitchen	-11.7796
▁transition	-11.7796
▁團十郎	-11.7796
濠	-11.7796
頓	-11.7796
▁crack	-11.7796
▁Tram	-11.7796
▁varieties	-11.7796
▁桐壺	-11.7796
▁健康	-11.7796
▁とどま	-11.7796
▁梅若	-11.7796
▁mainstream	-11.7797
▁export	-11.7797
▁Genpei	-11.7798
▁投入	-11.7798
▁kyogen	-11.78
▁海岸	-11.78
▁primary	-11.78
▁expect	-11.7801
▁相対	-11.7804
▁屋号	-11.7804
▁Iwate	-11.7808
▁shochu	-11.781
過	-11.7811
▁作戦	-11.7813
mitama	-11.7813
view	-11.7814
辞	-11.7817
▁本朝	-11.7818
継ぎ	-11.7823
▁Noto	-11.7833
▁teach	-11.784
叡	-11.7841
▁INABA	-11.7841
魏	-11.7841
▁Goddess	-11.7841
▁graveyard	-11.7841
▁occupy	-11.7841
▁印刷	-11.7842
▁downfall	-11.7843
▁fermentation	-11.7844
▁TOKI	-11.7845
▁Seinan	-11.7847
▁分布	-11.7847
▁belt	-11.7848
▁親政	-11.7848
▁公布	-11.7849
▁restrict	-11.7855
▁本丸	-11.7855
▁右手	-11.7859
▁wave	-11.786
符	-11.7863
官司	-11.7863
▁gather	-11.7865
▁三輪	-11.7865
▁naturally	-11.7866
蒙	-11.7887
▁NAITO	-11.7887
▁沿岸	-11.7887
柵	-11.7887
▁prevail	-11.7887
▁Tochigi	-11.7888
▁species	-11.7888
▁筒井	-11.7888
▁うかが	-11.7888
▁decrease	-11.7888
▁処罰	-11.7888
▁どお	-11.7889
▁Hotel	-11.7889
CO	-11.7893
gama	-11.7894
▁来日	-11.7895
▁親族	-11.7896
▁東部	-11.7899
▁学科	-11.7899
▁homyo	-11.79
▁farmer	-11.7904
せい	-11.7907
祐	-11.7911
▁demon	-11.7911
spread	-11.7911
▁後円	-11.7916
▁大海	-11.7927
▁名物	-11.7931
渉	-11.7933
▁renovat	-11.7934
櫛	-11.7934
湿	-11.7934
▁阿倍	-11.7934
▁schedule	-11.7938
▁五百	-11.7939
▁強調	-11.7939
▁Yamanashi	-11.7942
▁教員	-11.7942
▁出生	-11.7943
zakura	-11.7945
▁ひら	-11.7945
▁世代	-11.7953
▁starch	-11.7953
cus	-11.7954
芳	-11.7958
顔	-11.7958
▁市民	-11.7958
ological	-11.7963
ketsu	-11.7977
碁	-11.798
▁Administration	-11.798
▁expensive	-11.798
▁intersection	-11.798
▁leather	-11.798
▁pepper	-11.798
▁prostitute	-11.798
巳	-11.798
憂	-11.798
耶	-11.798
▁burden	-11.798
▁艦隊	-11.798
▁warlord	-11.798
▁整え	-11.798
▁Komachi	-11.7981
▁Dynasties	-11.7981
▁bottle	-11.7981
▁Kashihara	-11.7981
▁KIRA	-11.7981
▁Yugiri	-11.7982
▁NAKAYAMA	-11.7982
▁講堂	-11.7983
▁smok	-11.7983
▁食材	-11.7984
▁teahouse	-11.7984
▁議長	-11.7985
▁輸出	-11.7987
▁Monju	-11.7991
▁津田	-11.7996
shimo	-11.8002
▁直政	-11.8006
▁どん	-11.8007
▁Yoshinari	-11.8007
half	-11.8008
▁Koshin	-11.8013
▁sew	-11.8014
▁院号	-11.8016
▁mental	-11.8017
▁長谷	-11.8026
倫	-11.8027
▁Amagasaki	-11.8027
▁Character	-11.8027
▁Mononobe	-11.8027
▁promulgated	-11.8027
▁アクセス	-11.8027
▁俳句	-11.8027
▁樺太	-11.8027
儲	-11.8027
泣	-11.8027
潔	-11.8027
▁Fukakusa	-11.8027
▁奮戦	-11.8027
▁季節	-11.8028
▁始祖	-11.8028
▁衣服	-11.8028
▁Sugawara	-11.8028
▁弁慶	-11.8029
▁考古	-11.8029
▁Tenri	-11.8029
▁被官	-11.8029
▁合奏	-11.8029
▁spen	-11.8031
▁文殊	-11.8032
▁render	-11.8033
▁勝頼	-11.8036
▁assum	-11.8037
▁sechi	-11.804
▁Tadamichi	-11.8041
izing	-11.8046
仕	-11.8048
▁Wada	-11.805
▁中興	-11.8054
▁Kume	-11.8056
▁ferment	-11.8071
柴	-11.8074
▁loincloth	-11.8074
囚	-11.8074
箔	-11.8074
赦	-11.8074
▁持ち帰	-11.8074
▁浅草	-11.8075
▁Shimabara	-11.8075
▁missing	-11.8075
▁Section	-11.8075
▁宣教	-11.8076
hachiman	-11.8077
▁居士	-11.8078
▁如意	-11.808
▁lowest	-11.808
▁名神	-11.8081
▁Miwa	-11.8095
▁modifi	-11.8097
文書	-11.8097
▁varie	-11.8099
審	-11.8102
嘉	-11.8102
▁1602	-11.8103
葺	-11.8104
▁1159	-11.8104
▁相国	-11.811
uch	-11.812
▁tumul	-11.8121
▁1579	-11.8121
▁Church	-11.8121
▁Demachiyanagi	-11.8121
▁Prize	-11.8121
▁alleged	-11.8121
▁proclaim	-11.8121
▁昆布	-11.8121
梵	-11.8121
▁Mount	-11.8121
▁maintenance	-11.8121
▁企画	-11.8121
▁debut	-11.8121
▁Hyakunin	-11.8123
▁大海人	-11.8125
▁Kanpei	-11.8125
▁nishiki	-11.8127
▁maiden	-11.8128
▁exercise	-11.8129
▁kokyu	-11.813
▁財団	-11.813
▁桂川	-11.813
▁義弘	-11.813
▁有馬	-11.8131
陸	-11.8131
タル	-11.8134
▁listen	-11.8136
retsu	-11.814
扇	-11.815
吾	-11.815
▁enshrin	-11.8151
カル	-11.8152
げん	-11.8155
▁多賀	-11.8159
立命	-11.8165
ceased	-11.8167
▁excell	-11.8168
誅	-11.8169
▁concrete	-11.8169
偶	-11.8169
蔭	-11.8169
▁siege	-11.8169
▁besieg	-11.8169
▁barrier	-11.8169
▁能登	-11.8169
▁dropp	-11.8169
▁Soon	-11.8169
▁rent	-11.8169
▁非難	-11.8169
▁Kuranosuke	-11.817
▁料金	-11.8171
▁KOGA	-11.8171
▁Bankoku	-11.8174
▁陣屋	-11.8175
▁久安	-11.8177
▁independently	-11.8186
▁Miroku	-11.8187
▁三代	-11.8192
疑	-11.8198
脇	-11.8198
▁honjo	-11.8201
▁化学	-11.8203
ーフ	-11.8213
▁Yomi	-11.8216
▁categories	-11.8216
▁investiture	-11.8216
▁俳諧	-11.8216
▁赦免	-11.8216
悔	-11.8216
芋	-11.8216
▁Advis	-11.8216
▁邪馬	-11.8216
▁specter	-11.8216
▁設備	-11.8216
▁quiet	-11.8216
▁elegant	-11.8216
▁textbook	-11.8216
▁demise	-11.8217
▁列強	-11.8217
▁lyric	-11.8217
▁講談	-11.8218
▁観念	-11.8219
▁affair	-11.8219
▁南禅	-11.822
▁kuji	-11.822
▁大奥	-11.8221
▁受け取	-11.8221
▁ramen	-11.8224
▁実父	-11.8225
▁Kuge	-11.8226
▁Myoshin	-11.8227
▁今井	-11.8229
▁instruct	-11.823
▁仲間	-11.8232
mawari	-11.8233
▁Hiyoshi	-11.8234
▁Yukichi	-11.824
▁prose	-11.8242
▁Shobo	-11.8245
▁Masayoshi	-11.8246
帰	-11.8247
補	-11.8249
▁impress	-11.8254
祖先	-11.8262
▁remarkabl	-11.8264
▁consolidat	-11.8264
▁storage	-11.8264
▁吸収	-11.8264
▁colon	-11.8264
▁締め	-11.8264
▁夕霧	-11.8264
▁エリア	-11.8265
▁boom	-11.8266
参謀	-11.8268
▁makeup	-11.8269
▁議定	-11.8269
ryoshu	-11.827
▁difficulties	-11.8272
▁revival	-11.8277
▁性質	-11.8277
セン	-11.829
▁originator	-11.829
稲	-11.8299
▁Natsu	-11.8302
▁1160	-11.8304
eek	-11.8306
▁Himemiko	-11.8312
▁column	-11.8312
▁luxur	-11.8312
▁network	-11.8312
杯	-11.8312
錬	-11.8312
▁Bound	-11.8312
▁parade	-11.8312
▁TAKAHASHI	-11.8312
▁直轄	-11.8312
▁規則	-11.8313
▁事故	-11.8314
▁経過	-11.8315
バネ	-11.8316
▁Toyooka	-11.8316
▁graduate	-11.8316
▁Yamatai	-11.8321
▁Miki	-11.8322
▁団地	-11.8324
▁introduc	-11.8329
▁shared	-11.8329
▁全線	-11.833
▁Matsuo	-11.8341
鴨	-11.8345
奉	-11.8345
general	-11.8346
太夫	-11.8347
▁全長	-11.8353
ろし	-11.8357
▁Bunko	-11.8358
迹	-11.836
枡	-11.836
茅	-11.836
隷	-11.836
▁Type	-11.836
▁Utsunomiya	-11.836
▁neighborhood	-11.836
▁exceed	-11.836
▁Royal	-11.8361
▁発揮	-11.8361
▁conclusion	-11.8361
▁提案	-11.8361
▁Eighth	-11.8362
▁接続	-11.8362
▁推挙	-11.8363
▁fifteenth	-11.8364
▁animal	-11.8365
▁ヶ所	-11.8366
▁美作	-11.8368
▁Myojin	-11.8371
▁勝手	-11.8379
consistent	-11.8382
arch	-11.8383
▁Shozo	-11.8386
▁Kokyu	-11.8387
▁1578	-11.8387
▁deposit	-11.8392
静	-11.8395
down	-11.8403
▁legislat	-11.8409
▁Document	-11.8409
▁extraordinar	-11.8409
▁kilometers	-11.8409
▁viscount	-11.8409
克	-11.8409
芦	-11.8409
▁invocation	-11.8409
▁quantit	-11.8409
▁shaved	-11.8409
▁WADA	-11.8409
▁箏曲	-11.8409
▁Store	-11.841
▁仕立て	-11.841
▁Hagi	-11.8411
▁本項	-11.8411
▁judgment	-11.8411
▁Korechika	-11.8412
▁小袖	-11.8413
▁雑賀	-11.8413
▁lifetime	-11.8413
▁preface	-11.8414
city	-11.8415
▁kanrei	-11.8415
▁Kotoku	-11.8416
▁史書	-11.8422
▁斬り	-11.8422
▁constitutional	-11.8428
▁国師	-11.843
▁Nobuyoshi	-11.8434
▁決し	-11.8437
▁1565	-11.844
伯	-11.8444
▁ox	-11.8456
MIKADO	-11.8458
▁Hospital	-11.8458
▁guarantee	-11.8458
▁mixture	-11.8458
傑	-11.8458
鎧	-11.8458
▁craftsmen	-11.8458
▁Hannya	-11.8458
▁FURU	-11.8458
▁definition	-11.8459
▁natto	-11.8459
▁絶対	-11.8459
▁振る	-11.8459
▁昇殿	-11.846
▁764	-11.8463
▁漢文	-11.8464
▁Medic	-11.8464
▁Yukinaga	-11.8465
▁Tameyoshi	-11.8466
▁相馬	-11.8467
Cho	-11.8468
▁Honjo	-11.8469
▁gone	-11.8472
▁headship	-11.8482
▁Yagi	-11.8485
▁会所	-11.8487
▁Kyokai	-11.8491
▁genre	-11.8493
▁tablet	-11.8494
万	-11.8495
岩	-11.8495
▁Dharma	-11.8507
▁townspeople	-11.8507
▁婚姻	-11.8507
▁竣工	-11.8507
漏	-11.8507
酷	-11.8507
▁春秋	-11.8508
▁Buke	-11.8508
▁SHIBATA	-11.8509
▁内紛	-11.851
▁Kamon	-11.851
▁unification	-11.851
▁松浦	-11.8511
▁落城	-11.8512
▁Tsugu	-11.8515
▁Miura	-11.8515
▁KAMO	-11.8517
▁Shigehira	-11.852
▁Fuhito	-11.8524
drop	-11.8525
もり	-11.8527
ything	-11.8531
▁Va	-11.8531
▁possibl	-11.8538
▁usual	-11.854
▁信者	-11.8544
宋	-11.8547
▁sit	-11.8553
▁examin	-11.8554
況	-11.8556
暖	-11.8556
▁Committee	-11.8556
▁Foundation	-11.8556
▁HIJIKATA	-11.8556
咲	-11.8556
芽	-11.8556
鋒	-11.8556
▁rescu	-11.8556
▁brewed	-11.8556
▁振興	-11.8557
▁window	-11.8557
▁ワキ	-11.8558
▁適用	-11.8561
▁職員	-11.8562
▁買い	-11.8566
▁Masahiro	-11.8567
▁classic	-11.857
▁同社	-11.8574
▁Iwami	-11.8576
▁Seiryo	-11.8582
▁割り	-11.8586
▁三宝	-11.8588
単	-11.8596
優	-11.8598
▁Enshu	-11.86
輿	-11.8602
▁人衆	-11.8603
rovincial	-11.8604
▁sovereign	-11.8605
響	-11.8605
▁Daruma	-11.8605
獲	-11.8605
▁イベント	-11.8605
篇	-11.8605
粗	-11.8605
逢	-11.8605
▁OKUMA	-11.8606
▁Obama	-11.8606
▁ブーム	-11.8606
▁海苔	-11.8606
▁MATSUMOTO	-11.8606
▁Miyazaki	-11.8607
▁討死	-11.8608
▁遠州	-11.8613
▁tears	-11.8614
▁借り	-11.8614
▁data	-11.8614
▁III	-11.8617
▁河川	-11.8617
式部	-11.8618
▁比定	-11.8618
▁宮殿	-11.862
▁1848	-11.8622
▁Matsuyama	-11.8624
▁Tokiwa	-11.8627
▁signal	-11.8629
▁shore	-11.863
▁入集	-11.8631
▁くらい	-11.8634
▁両方	-11.8634
▁ハイ	-11.8634
dare	-11.8636
授	-11.8643
▁provision	-11.8645
▁univers	-11.8654
▁propagat	-11.8655
▁Letters	-11.8655
▁Technology	-11.8655
▁registration	-11.8655
樫	-11.8655
胆	-11.8655
▁与謝	-11.8655
▁若干	-11.8656
▁寛弘	-11.8657
▁暮ら	-11.8657
▁anger	-11.8659
舎利	-11.8659
▁教養	-11.8659
▁武芸	-11.866
▁holiday	-11.8663
▁下旬	-11.8665
▁著者	-11.8665
▁fence	-11.8667
▁武官	-11.8668
▁lion	-11.867
ンガ	-11.8671
▁1842	-11.8672
300	-11.8674
gahara	-11.8677
▁千手	-11.8679
▁sale	-11.8682
▁Historic	-11.8688
頂	-11.8693
▁Azai	-11.8695
遣	-11.8696
譲	-11.8697
X	-11.8697
▁Mari	-11.87
▁Honmon	-11.8703
edieval	-11.8704
llegitimate	-11.8705
▁Gomizunoo	-11.8705
▁ceiling	-11.8705
▁enormous	-11.8705
債	-11.8705
呑	-11.8705
▁出入り	-11.8705
▁Metropolitan	-11.8706
▁Ritsu	-11.8706
▁勲章	-11.8706
▁佐伯	-11.8706
▁schem	-11.8706
▁勅許	-11.8706
▁助六	-11.8707
▁Golden	-11.8707
▁宇佐	-11.8707
lding	-11.8708
▁公認	-11.8708
▁Oita	-11.8709
▁旅館	-11.8709
▁発布	-11.8709
▁Koyasan	-11.871
▁hotel	-11.871
▁大使	-11.8711
▁岡本	-11.8711
▁ふる	-11.8713
▁弘法	-11.8714
▁内侍	-11.8715
須賀	-11.8718
さん	-11.8731
どころ	-11.8733
まだ	-11.8735
▁地理	-11.8735
▁Traditional	-11.8744
弾	-11.8749
▁Th	-11.8751
唯	-11.8755
▁Gofukakusa	-11.8755
▁positive	-11.8755
▁relief	-11.8755
▁technical	-11.8755
拳	-11.8755
琳	-11.8755
逐	-11.8755
邑	-11.8755
黙	-11.8755
▁strange	-11.8756
▁Jimyoin	-11.8756
▁seaweed	-11.8756
▁committee	-11.8756
▁bitter	-11.8757
▁stem	-11.8757
▁justice	-11.8758
▁tight	-11.8759
▁会長	-11.8759
▁門弟	-11.876
▁政友	-11.8761
▁制圧	-11.8761
▁屋台	-11.8762
▁列島	-11.8764
▁delivery	-11.8765
▁宝生	-11.8768
▁道隆	-11.877
▁editor	-11.8775
▁大老	-11.878
▁堂上	-11.8782
▁symboliz	-11.8782
RE	-11.8788
▁restriction	-11.8791
▁bore	-11.8797
▁Sugi	-11.88
尺	-11.88
伺	-11.8806
鎌	-11.8806
▁Examples	-11.8806
▁Federation	-11.8806
▁delegat	-11.8806
【	-11.8806
煕	-11.8806
爆	-11.8806
粥	-11.8806
而	-11.8806
▁HASHIBA	-11.8806
▁署名	-11.8806
▁工程	-11.8806
▁全般	-11.8807
▁Sunday	-11.8808
▁hostage	-11.8808
▁singing	-11.881
▁築造	-11.881
▁大将軍	-11.8811
▁上陸	-11.8812
トロ	-11.8813
gakari	-11.8813
▁山梨	-11.8814
▁仏殿	-11.8815
▁Antoku	-11.8816
▁Akira	-11.8817
▁家茂	-11.8818
▁ビル	-11.882
▁Zoku	-11.8822
ogue	-11.8836
▁Amatsu	-11.8839
並	-11.885
▁天井	-11.8851
honzan	-11.8853
▁清国	-11.8855
▁FUKU	-11.8857
班	-11.8857
▁Theory	-11.8857
zhou	-11.8857
▁kelp	-11.8857
▁violent	-11.8857
▁シリーズ	-11.8857
▁侯爵	-11.8857
▁埴輪	-11.8857
憑	-11.8857
泡	-11.8857
缶	-11.8857
臼	-11.8857
諾	-11.8857
雛	-11.8857
ヴァ	-11.8857
▁Girl	-11.8857
▁councillor	-11.8858
▁udon	-11.8858
▁magic	-11.8858
▁Sunpu	-11.8858
▁公演	-11.8861
▁circulation	-11.8862
cular	-11.8863
▁Shinden	-11.8863
▁植え	-11.8864
▁Sasaki	-11.8866
▁KAN	-11.8871
yashiki	-11.8872
▁本紀	-11.8872
▁Mago	-11.8872
▁為義	-11.8873
▁後裔	-11.8874
UN	-11.8879
▁nama	-11.8883
▁Monk	-11.8884
▁安徳	-11.8885
▁Yoshinaga	-11.8888
▁Nishiki	-11.8899
express	-11.8904
裂	-11.8906
叔	-11.8908
鶏	-11.8908
▁bullet	-11.8908
▁overwhelm	-11.8908
▁Shimbun	-11.8908
▁cycle	-11.8908
▁Style	-11.8908
▁勤務	-11.8908
▁商店	-11.8909
▁支払	-11.8909
▁風呂	-11.8909
▁引退	-11.8911
▁出汁	-11.8911
▁三昧	-11.8913
▁講義	-11.8913
▁dialect	-11.8913
▁画像	-11.8913
▁金春	-11.8917
00,000	-11.8917
▁理事	-11.8918
ワー	-11.8926
▁Yusai	-11.8927
ガン	-11.893
▁credit	-11.8933
▁団子	-11.8938
Ki	-11.8948
▁Seta	-11.8955
▁Hase	-11.8956
群	-11.8956
ā	-11.8959
▁earthquake	-11.8959
▁simplified	-11.8959
圀	-11.8959
肝	-11.8959
▁Legend	-11.8959
▁steep	-11.8959
▁snake	-11.8959
▁Byodo	-11.8959
▁Jushiinojo	-11.8959
▁Oyamazaki	-11.8959
▁shakuhachi	-11.896
▁Hosso	-11.896
▁フェ	-11.896
▁能楽師	-11.896
▁Haihan	-11.8961
▁review	-11.8961
▁Tsukushi	-11.8961
▁名残	-11.8963
▁nominal	-11.8963
▁Tokushima	-11.8964
▁Camp	-11.8965
▁清酒	-11.8965
▁左馬	-11.8966
▁開け	-11.8966
▁身体	-11.8975
elected	-11.8976
▁mold	-11.8984
grade	-11.8988
▁1571	-11.8988
バル	-11.8989
▁Neo	-11.8989
ER	-11.8992
▁1177	-11.8996
▁府中	-11.9005
故	-11.9005
.7	-11.9007
ject	-11.9008
誠	-11.9009
買	-11.9009
躍	-11.901
fantry	-11.9011
▁dictionary	-11.9011
裾	-11.9011
▁fox	-11.9011
▁Obaku	-11.9011
▁装置	-11.9011
▁変遷	-11.9011
▁stole	-11.9011
▁演劇	-11.9011
▁penalt	-11.9012
▁吉祥	-11.9012
そう	-11.9013
拍子	-11.9014
▁Shonagon	-11.9015
承安	-11.9017
▁文芸	-11.9018
▁建保	-11.9019
▁Yoshitane	-11.902
目立	-11.9024
▁Along	-11.9029
▁deeds	-11.9031
five	-11.9034
▁富田	-11.9037
がた	-11.9044
SUGA	-11.9044
▁治め	-11.9053
▁ひとり	-11.9058
▁名乗り	-11.9058
割	-11.9059
▁西方	-11.9059
▁etiquette	-11.9062
▁fulfill	-11.9062
▁substantial	-11.9062
卓	-11.9062
妨	-11.9062
拘	-11.9062
刈	-11.9062
▁oppress	-11.9062
▁きわめ	-11.9062
▁Number	-11.9063
▁典侍	-11.9063
▁impact	-11.9063
▁precedent	-11.9063
▁native	-11.9064
▁koban	-11.9064
▁向日	-11.9065
▁容器	-11.9065
▁味付け	-11.9065
▁南無	-11.9066
▁伝奏	-11.9067
▁personality	-11.9069
ックス	-11.907
▁供え	-11.9076
▁次官	-11.9081
▁1596	-11.9085
▁旧来	-11.9086
▁NIK	-11.9093
▁Sub	-11.9094
▁List	-11.9095
▁806	-11.9098
▁石見	-11.9105
▁繰り	-11.9112
訂	-11.9114
▁divorc	-11.9115
▁天橋立	-11.9115
▁混同	-11.9115
▁矛盾	-11.9115
▁謹慎	-11.9115
禎	-11.9115
錯	-11.9115
▁供給	-11.9116
しゅう	-11.9116
▁差別	-11.9116
▁競馬	-11.9116
TSUJI	-11.9116
▁easi	-11.9122
▁忠興	-11.9123
Osaka	-11.9123
▁吹き	-11.9124
▁Bugyo	-11.9125
sozu	-11.9126
▁徳政	-11.9126
▁歳三	-11.9126
▁誤り	-11.9126
▁Chion	-11.9129
EGAWA	-11.9132
▁ふた	-11.9133
▁attach	-11.9134
▁女神	-11.9134
▁Wang	-11.9137
TOKU	-11.9139
▁Basin	-11.9147
▁じゃ	-11.9149
▁ふく	-11.9157
▁小町	-11.916
▁Jogan	-11.916
▁Hina	-11.9162
残	-11.9164
▁businesses	-11.9165
軌	-11.9167
▁dissatisf	-11.9167
▁genealogi	-11.9167
▁suspicion	-11.9167
牽	-11.9167
闇	-11.9167
▁Concern	-11.9167
▁cremat	-11.9167
▁Himiko	-11.9167
▁準急	-11.9167
▁Asakusa	-11.9167
▁幽斎	-11.9168
▁血縁	-11.9168
▁革命	-11.9168
▁Akamatsu	-11.9169
講和	-11.9172
清水	-11.9173
▁plott	-11.9173
book	-11.9174
▁マイ	-11.9176
▁民権	-11.9176
▁馬場	-11.9177
▁Play	-11.9181
▁Yume	-11.9182
▁cave	-11.9183
▁岩手	-11.9185
▁平時	-11.9189
▁学会	-11.9189
▁作風	-11.919
tsuhiko	-11.9195
▁driv	-11.9203
巧	-11.9219
▁perspective	-11.9219
▁毘沙	-11.9219
嶽	-11.9219
涙	-11.9219
盲	-11.9219
覇	-11.9219
▁delay	-11.922
▁伸ば	-11.922
▁ヤマ	-11.922
,500	-11.922
▁梅雨	-11.9221
▁尺八	-11.9221
太閤	-11.9221
亡	-11.9221
▁福澤	-11.9222
▁山頂	-11.9224
▁複線	-11.9224
▁在任	-11.9228
▁安藤	-11.9229
▁Ichinomiya	-11.9229
▁力士	-11.923
▁procedure	-11.9233
▁Nobuyori	-11.9234
▁宝物	-11.9239
NAGA	-11.9241
▁Danjo	-11.9246
▁matur	-11.9253
▁Kanjin	-11.9257
storey	-11.9258
チャー	-11.9262
祇	-11.9268
▁Access	-11.9272
▁ジャン	-11.9272
▁メーカー	-11.9272
▁篆刻	-11.9272
畝	-11.9272
臭	-11.9272
鷲	-11.9272
▁Place	-11.9272
NUMA	-11.9272
▁婦人	-11.9273
汁	-11.9273
▁purificat	-11.9273
▁速度	-11.9274
き起こ	-11.9274
▁Mikkyo	-11.9275
point	-11.9276
曹	-11.9276
珍	-11.9276
▁driver	-11.928
▁今後	-11.928
▁疑い	-11.9281
▁Buzen	-11.9281
▁仏師	-11.9282
▁Shintoism	-11.9284
▁Daibutsu	-11.9285
▁fleet	-11.9286
▁Saigyo	-11.9286
▁Okami	-11.929
▁1835	-11.929
▁Fukei	-11.9291
▁青山	-11.9301
▁Karu	-11.9304
▁明法	-11.9304
▁名勝	-11.9307
▁statesman	-11.9308
place	-11.9311
▁Iwashimizu	-11.9326
▁Please	-11.9326
▁storyteller	-11.9326
▁woodblock	-11.9326
慢	-11.9326
▁balance	-11.9326
▁imprison	-11.9326
▁阪神	-11.9326
▁追贈	-11.9326
▁Story	-11.9326
▁華厳	-11.9327
▁Mochiuji	-11.9328
▁居留	-11.9328
▁Shoichi	-11.9339
▁義興	-11.9339
▁Gyoku	-11.9339
flow	-11.9342
▁新興	-11.9344
▁法相	-11.9346
▁小林	-11.9348
▁1581	-11.9354
▁1612	-11.9358
▁Gozan	-11.9358
▁子女	-11.9363
プリ	-11.9372
昧	-11.9374
当たり	-11.9375
▁preced	-11.9378
▁Bishamon	-11.9379
▁authentic	-11.9379
▁faculty	-11.9379
▁sculptor	-11.9379
▁無量寿	-11.9379
亨	-11.9379
凍	-11.9379
匹	-11.9379
卜	-11.9379
曇	-11.9379
煎	-11.9379
酔	-11.9379
▁封建	-11.9379
▁隠棲	-11.9379
▁納豆	-11.9379
▁計算	-11.938
▁suburb	-11.938
▁用途	-11.9382
▁NAGAI	-11.9383
▁刑部	-11.9384
▁resum	-11.9386
▁書店	-11.9387
▁実録	-11.9388
tuck	-11.9391
OGASA	-11.9392
▁Emaki	-11.9392
▁重忠	-11.9394
▁Uemon	-11.9395
▁女院	-11.9399
▁大弁	-11.9404
長岡京	-11.9404
▁severely	-11.9406
▁polish	-11.9425
▁feud	-11.9428
bilities	-11.9433
▁external	-11.9433
▁precise	-11.9433
▁dharma	-11.9433
▁ウナギ	-11.9433
践	-11.9433
▁Aomori	-11.9433
▁textile	-11.9433
▁Tsubone	-11.9434
▁大山崎	-11.9435
▁職掌	-11.9435
▁mural	-11.9436
▁outbound	-11.9438
loud	-11.9438
▁表紙	-11.9438
higashi	-11.944
娘	-11.944
▁御池	-11.9441
▁宗祖	-11.9446
▁白石	-11.9447
▁Yoshimochi	-11.9448
▁1855	-11.9451
▁Takeru	-11.9457
▁Ansei	-11.9459
▁introduce	-11.9468
HASHI	-11.9468
preme	-11.9473
▁寄合	-11.9479
▁Jushii	-11.9487
▁commerce	-11.9487
▁rectangular	-11.9487
▁remember	-11.9487
▁tournament	-11.9487
勉	-11.9487
撫	-11.9487
棋	-11.9487
鋭	-11.9487
▁障壁	-11.9487
▁boiling	-11.9487
▁Isami	-11.9487
▁譲渡	-11.9488
▁institute	-11.9494
▁師団	-11.9495
著	-11.9495
▁deliver	-11.9498
▁Shugodai	-11.9499
▁Keitai	-11.9499
▁adoption	-11.9503
▁Jusan	-11.9507
▁石橋	-11.952
▁behead	-11.9526
▁Yoshimura	-11.9526
拓	-11.954
絡	-11.954
▁comparison	-11.9541
▁custod	-11.9541
▁peninsula	-11.9541
▁pregnan	-11.9541
憤	-11.9541
裳	-11.9541
蹟	-11.9541
▁fusuma	-11.9541
▁conspiracy	-11.9542
▁Heizei	-11.9542
▁遷任	-11.9543
▁occasional	-11.9544
▁Tametomo	-11.9545
▁左兵衛	-11.9547
▁Okina	-11.9548
▁高架	-11.9548
箱	-11.955
▁消え	-11.955
▁Past	-11.9551
勲	-11.9551
chief	-11.9551
▁warship	-11.9552
▁資本	-11.9552
wood	-11.9556
▁Biwako	-11.9557
▁授か	-11.9558
▁1331	-11.9562
▁737	-11.9567
▁manju	-11.9568
solv	-11.9588
▁dispos	-11.9591
堵	-11.9594
▁Izanami	-11.9596
▁church	-11.9596
▁fragment	-11.9596
▁necessit	-11.9596
▁nowadays	-11.9596
把	-11.9596
販	-11.9596
▁Gokuraku	-11.9596
▁Sahyoe	-11.9596
▁encounter	-11.9596
musubi	-11.9596
▁fragran	-11.9596
▁interior	-11.9596
▁omitt	-11.9596
▁エビ	-11.9598
▁proof	-11.9598
▁温度	-11.9598
▁西欧	-11.96
▁Kyoku	-11.9603
▁sight	-11.9603
▁Mizuno	-11.9606
▁霊場	-11.9606
▁kg	-11.9606
墓	-11.9606
▁外側	-11.9608
▁Yorimitsu	-11.9608
▁宣長	-11.9609
▁得度	-11.961
▁1861	-11.9616
ginu	-11.9618
▁gable	-11.9621
▁1616	-11.9628
▁1569	-11.9629
▁同心	-11.963
▁1619	-11.963
water	-11.9634
▁やまと	-11.9645
▁eleven	-11.9646
▁continent	-11.9651
▁discriminat	-11.9651
▁Zhou	-11.9651
▁certificate	-11.9651
▁drunk	-11.9651
▁negative	-11.9651
▁phenomenon	-11.9651
巾	-11.9651
盾	-11.9651
粘	-11.9651
▁倉庫	-11.9651
▁neck	-11.9651
▁征討	-11.9651
▁laugh	-11.9652
▁朱印	-11.9652
▁預か	-11.9654
▁峰山	-11.9657
▁観点	-11.9657
▁工学	-11.9657
▁earthen	-11.9659
▁Kenkyu	-11.966
逆	-11.9663
generation	-11.9663
▁user	-11.9666
▁vot	-11.9669
▁1338	-11.9671
▁Jaku	-11.9675
▁1190	-11.9685
▁Kinem	-11.9687
▁Rokuro	-11.9687
▁communit	-11.9695
永久	-11.9697
恨	-11.9706
▁dormitory	-11.9706
▁inferior	-11.9706
▁summon	-11.9706
▁unearth	-11.9706
ぷ	-11.9706
喰	-11.9706
怖	-11.9706
隻	-11.9706
▁cypress	-11.9706
▁控え	-11.9706
▁企て	-11.9706
▁今昔	-11.9706
▁Medicine	-11.9706
▁違反	-11.9706
▁寝返	-11.9707
▁Kegon	-11.9708
▁仏壇	-11.9709
▁Stone	-11.971
弘文	-11.9711
▁thirteenth	-11.9712
精米	-11.9712
▁waist	-11.9714
faced	-11.9714
▁brid	-11.9715
▁highway	-11.9716
▁ISE	-11.9717
増	-11.9718
栗	-11.972
牧	-11.972
敏	-11.972
鳴	-11.972
▁matches	-11.9723
さぎ	-11.9728
▁1840	-11.973
▁内側	-11.9733
▁Ehime	-11.9734
▁1588	-11.9736
▁rebell	-11.9761
▁climate	-11.9762
▁hierarchy	-11.9762
▁wedding	-11.9762
▁丸太町	-11.9762
▁墳丘	-11.9762
偏	-11.9762
函	-11.9762
飴	-11.9762
▁ARAKI	-11.9762
▁obey	-11.9762
Ju	-11.9762
▁Tower	-11.9762
▁課程	-11.9762
▁blam	-11.9763
▁Isshu	-11.9763
▁長谷川	-11.9764
▁各駅	-11.9764
gency	-11.9765
▁小堀	-11.9766
▁神輿	-11.9766
▁zone	-11.9767
▁随行	-11.9768
▁shortage	-11.9773
proved	-11.9775
▁宮司	-11.9776
▁社格	-11.9778
▁starr	-11.9779
▁Gongen	-11.9782
▁住ま	-11.9782
▁Hanshin	-11.9785
▁三角	-11.9788
▁lover	-11.9797
祭り	-11.9805
▁Villa	-11.9816
▁ISSHIKI	-11.9817
▁dumpling	-11.9817
▁不比等	-11.9817
▁北大路	-11.9817
▁高句麗	-11.9817
甫	-11.9817
註	-11.9817
▁confused	-11.9818
▁corridor	-11.9818
▁ministry	-11.9818
▁航空	-11.9818
▁folklore	-11.9818
▁knot	-11.9818
inistries	-11.9818
▁陥落	-11.9818
▁単純	-11.9818
▁wander	-11.9819
▁勅命	-11.9824
▁通商	-11.9824
▁領域	-11.9825
▁成仏	-11.9826
ppon	-11.9826
打	-11.9832
姿	-11.9834
govern	-11.9835
捨て	-11.9836
▁pet	-11.9836
▁1843	-11.9837
▁仏法	-11.9841
▁1593	-11.9845
▁開城	-11.9848
▁Du	-11.9853
▁destination	-11.9874
▁glass	-11.9874
峡	-11.9874
毅	-11.9874
▁Gosaga	-11.9874
▁アメノ	-11.9874
▁annex	-11.9874
▁Tree	-11.9874
▁転封	-11.9876
▁fellow	-11.9876
▁Negoro	-11.9876
▁巨勢	-11.9877
▁薬師寺	-11.9877
▁祝日	-11.9878
▁木製	-11.9878
▁ronin	-11.9882
▁inheritance	-11.9882
▁南西	-11.9887
まろ	-11.9891
衝	-11.9891
▁Tenryu	-11.9892
▁書籍	-11.9894
▁母方	-11.9902
ナイ	-11.9905
ては	-11.9923
剛	-11.9928
寇	-11.993
険	-11.993
▁acquaint	-11.993
▁brief	-11.993
▁parliament	-11.993
偈	-11.993
塁	-11.993
潤	-11.993
纏	-11.993
▁resort	-11.993
▁途絶	-11.993
▁eighteen	-11.993
▁cedar	-11.993
▁vary	-11.9931
▁舎人	-11.9931
▁九鬼	-11.9931
▁pickled	-11.9931
▁charm	-11.9932
▁boundary	-11.9934
▁師輔	-11.9934
▁下関	-11.9938
▁石垣	-11.9939
▁Maeda	-11.994
▁hut	-11.9946
▁Chiten	-11.9946
▁きょうと	-11.9947
悟	-11.9949
刺	-11.9949
血	-11.9949
▁Taisei	-11.9951
▁Sanpo	-11.9953
▁木村	-11.9954
▁Nav	-11.997
▁Afterward	-11.997
é	-11.9987
▁Chrysanthemum	-11.9987
▁Pilgrimage	-11.9987
▁Similar	-11.9987
▁UTSUNOMIYA	-11.9987
▁jewel	-11.9987
▁patriarch	-11.9987
嶺	-11.9987
播	-11.9987
▁Honzon	-11.9987
▁Joseon	-11.9987
▁Sports	-11.9987
▁Text	-11.9987
▁由緒	-11.9988
▁承認	-11.9988
▁禅僧	-11.9989
▁交替	-11.9989
▁resemble	-11.9991
▁Tsurugi	-11.9993
▁relocation	-12.0003
▁聞き	-12.0006
ホ	-12.0007
しょう	-12.0007
▁広大	-12.0008
▁ローマ	-12.0008
▁Shonai	-12.0009
▁taxation	-12.0012
▁koryo	-12.0015
ジェ	-12.0034
エル	-12.0038
▁ガス	-12.0043
▁Industrial	-12.0044
▁sanctuary	-12.0044
▁卑弥呼	-12.0044
摺	-12.0044
瓊	-12.0044
肌	-12.0044
蚕	-12.0044
蝶	-12.0044
顧	-12.0044
▁Born	-12.0045
▁終結	-12.0045
▁Kikugoro	-12.0045
▁loan	-12.0045
▁else	-12.0045
▁負傷	-12.0046
▁monster	-12.0046
▁訪ね	-12.0047
▁織物	-12.0049
▁treaties	-12.0053
▁服部	-12.0053
▁今度	-12.0054
▁修学	-12.0055
▁Sanetaka	-12.0055
▁Nakamura	-12.0055
▁Motonaga	-12.0059
▁daikan	-12.0063
▁Never	-12.0063
▁一貫	-12.0064
辰	-12.0065
左	-12.0066
▁当日	-12.0066
FU	-12.0066
クス	-12.0073
▁Count	-12.0091
▁sentenc	-12.0095
etween	-12.0101
鎖	-12.0101
▁Amanohashidate	-12.0102
▁Pagoda	-12.0102
▁collaborat	-12.0102
▁inaugurated	-12.0102
▁reduction	-12.0102
牙	-12.0102
眠	-12.0102
▁Chichibu	-12.0102
▁View	-12.0102
▁kiln	-12.0102
▁actress	-12.0102
▁耕作	-12.0102
▁踊り	-12.0102
▁悲し	-12.0102
▁秩父	-12.0102
KUNI	-12.0103
▁事項	-12.0103
レイ	-12.0104
▁支店	-12.0104
▁ファン	-12.0104
▁湖西	-12.0105
▁sanction	-12.0105
▁曲輪	-12.0105
レス	-12.0105
▁ライス	-12.0106
▁奏者	-12.0106
▁久米	-12.0107
▁利通	-12.0107
▁abdication	-12.011
▁パリ	-12.0112
chaya	-12.0112
▁Fudoki	-12.0114
▁感じ	-12.0115
▁Osumi	-12.0117
▁当代	-12.0124
▁勝元	-12.0124
嫁	-12.0124
▁commission	-12.0129
返し	-12.0136
▁Select	-12.0139
▁travell	-12.0145
粟	-12.0159
炎	-12.0159
▁Edict	-12.0159
▁sexual	-12.0159
▁stabiliz	-12.0159
ぢ	-12.0159
某	-12.0159
泳	-12.0159
潰	-12.0159
璽	-12.0159
茎	-12.0159
▁YOKO	-12.0159
▁壊滅	-12.0159
▁Finance	-12.0159
▁CHIBA	-12.0159
▁SAWAMURA	-12.0159
▁shelter	-12.0159
▁伸び	-12.0159
▁diplomacy	-12.016
▁雄略	-12.0161
▁統計	-12.0161
▁花山院	-12.0161
▁拝殿	-12.0162
▁link	-12.0162
▁Ippon	-12.0163
▁保有	-12.0167
▁証明	-12.0168
▁Shinzei	-12.0168
▁任せ	-12.0175
▁30,000	-12.0176
洛	-12.0178
▁informal	-12.0179
▁Sadaie	-12.0182
ホーム	-12.0184
博	-12.0184
ほど	-12.0186
紛	-12.0214
▁SAN	-12.0217
触	-12.0217
逃	-12.0217
▁fortress	-12.0218
▁heavily	-12.0218
▁pleasure	-12.0218
笹	-12.0218
虜	-12.0218
診	-12.0218
鴻	-12.0218
▁liquid	-12.0218
▁該当	-12.0218
▁storm	-12.0218
▁玉鬘	-12.0218
▁zuryo	-12.0219
▁bright	-12.0219
▁flying	-12.0219
▁Human	-12.022
▁choice	-12.022
▁Mineyama	-12.0221
▁bay	-12.0225
▁北京	-12.0226
▁assembly	-12.0228
六郎	-12.0228
▁原作	-12.0231
▁松平家	-12.0237
▁overlap	-12.0239
忍	-12.0243
▁Naganori	-12.0248
▁frequent	-12.026
▁Okuma	-12.0275
宛	-12.0276
▁illegal	-12.0276
▁KIKUCHI	-12.0276
▁Tathagata	-12.0276
▁mysterious	-12.0276
▁strike	-12.0276
厄	-12.0276
遁	-12.0276
▁稚児	-12.0276
▁解消	-12.0277
▁申請	-12.0277
▁Vow	-12.0278
▁閉じ	-12.0279
▁荘官	-12.028
▁craftsman	-12.0281
▁Final	-12.0282
▁Shimizu	-12.0282
IZUMI	-12.0284
▁Rice	-12.0289
▁tune	-12.0289
▁演じ	-12.029
▁合気	-12.0293
▁Tsubo	-12.0299
▁fame	-12.0299
竜	-12.0303
講	-12.0303
south	-12.0304
▁rough	-12.0319
▁flee	-12.032
▁abbreviat	-12.0329
径	-12.0333
漫	-12.0335
▁OGIMACHI	-12.0335
▁Shimonoseki	-12.0335
▁centuries	-12.0335
▁吟醸	-12.0335
捜	-12.0335
燕	-12.0335
▁smell	-12.0335
AIDO	-12.0335
▁consumption	-12.0335
▁舞妓	-12.0335
▁プラット	-12.0335
▁chest	-12.0335
▁位牌	-12.0336
▁Konjaku	-12.0336
▁初演	-12.0337
▁講師	-12.0338
▁景観	-12.0338
▁本庄	-12.0339
▁薩長	-12.034
▁Food	-12.034
▁Tanaka	-12.0343
▁八坂	-12.0344
▁Chikugo	-12.0344
▁yose	-12.0347
▁八重	-12.0351
▁1849	-12.0352
▁princesses	-12.0352
▁Hiromoto	-12.0353
▁differentiat	-12.0355
辛	-12.0363
▁honorar	-12.0373
ommentaries	-12.0378
曰	-12.0394
厨	-12.0394
爾	-12.0394
蜂	-12.0394
邇	-12.0394
▁anthologies	-12.0394
▁chrysanthemum	-12.0394
▁practitioner	-12.0394
▁執り行	-12.0394
▁宸翰	-12.0394
▁焼き討ち	-12.0394
ビュー	-12.0394
噺	-12.0394
▁Social	-12.0394
▁Tsukuba	-12.0394
▁conservative	-12.0394
▁odd	-12.0394
▁留め	-12.0394
▁予算	-12.0395
▁Paris	-12.0395
▁和尚	-12.0397
▁Jingikan	-12.0397
▁Hashimoto	-12.0398
▁Katamachi	-12.04
▁seeds	-12.0401
書記	-12.0404
▁高階	-12.0405
▁与力	-12.0406
▁discuss	-12.0406
▁1837	-12.0408
▁信西	-12.0412
▁1.8	-12.0413
▁Daiei	-12.0415
▁Nakayama	-12.0416
庄	-12.042
▁1850	-12.042
消	-12.0423
銘	-12.0424
打ち	-12.0425
ZE	-12.0426
▁Renge	-12.0446
謝	-12.0453
疏	-12.0454
▁Club	-12.0454
▁Wisdom	-12.0454
▁component	-12.0454
ゾ	-12.0454
ヂ	-12.0454
乞	-12.0454
夭	-12.0454
朴	-12.0454
樋	-12.0454
疫	-12.0454
▁Course	-12.0454
▁Ogimachi	-12.0454
▁transcrib	-12.0454
▁篠山	-12.0454
▁ninja	-12.0454
▁inspir	-12.0454
▁委託	-12.0454
▁danjiri	-12.0454
▁invest	-12.0454
▁改新	-12.0456
▁Kitaoji	-12.0456
▁現状	-12.0459
▁省略	-12.0459
▁立花	-12.0464
▁bless	-12.0465
▁持氏	-12.0465
▁竹内	-12.0467
▁義景	-12.0472
▁1800	-12.0483
恭	-12.0485
棟	-12.0485
握	-12.0485
欠	-12.0485
輸	-12.0485
夏	-12.0485
▁fix	-12.0487
優秀	-12.0492
▁Oike	-12.0494
▁assembl	-12.0503
▁トン	-12.0507
▁sever	-12.0508
▁resembl	-12.0509
▁Gold	-12.0513
▁Tamakazura	-12.0513
▁chopsticks	-12.0513
▁journal	-12.0513
▁飢饉	-12.0513
ラッシュ	-12.0513
掾	-12.0513
▁remote	-12.0514
▁TSUDA	-12.0514
▁dawn	-12.0514
▁naming	-12.0514
▁Chamber	-12.0514
▁ビメ	-12.0514
▁寄託	-12.0515
▁NAKAHARA	-12.0515
▁井戸	-12.0515
▁昇格	-12.0516
▁引き上げ	-12.0517
▁忍者	-12.0518
▁prohibition	-12.0518
▁Kizugawa	-12.0518
▁努力	-12.0519
▁修正	-12.0519
▁根来	-12.0519
▁片町	-12.0519
▁道鏡	-12.0521
▁剣道	-12.0521
▁Nanba	-12.0525
▁thrown	-12.0526
間隔	-12.053
▁1852	-12.0532
▁noodle	-12.0542
熟	-12.0546
▁cow	-12.0552
オリ	-12.0552
▁Hachimangu	-12.0555
▁Retainer	-12.0557
ground	-12.0557
礎	-12.0573
ゴル	-12.0573
▁enthusias	-12.0574
拡	-12.0574
▁Marutamachi	-12.0574
▁SERIZAWA	-12.0574
▁clique	-12.0574
▁geographical	-12.0574
▁kanpaku	-12.0574
▁peculiar	-12.0574
樽	-12.0574
▁嘆願	-12.0574
▁interfer	-12.0574
▁Merit	-12.0574
▁initiative	-12.0575
▁茨木	-12.0576
▁申し出	-12.0576
▁Yosa	-12.0581
▁worri	-12.0583
▁出来事	-12.0583
▁Merc	-12.0583
▁遊び	-12.0583
▁partition	-12.0586
▁Ikki	-12.0586
▁ジョ	-12.0588
▁OTANI	-12.0588
ドル	-12.0588
停留	-12.0617
▁menu	-12.0628
揃	-12.0634
諭	-12.0634
▁Dream	-12.0634
▁SANADA	-12.0634
▁スペイン	-12.0634
傳	-12.0634
璋	-12.0634
軟	-12.0634
▁extensive	-12.0634
▁Gosanjo	-12.0634
▁depth	-12.0634
っくり	-12.0634
▁進展	-12.0635
▁廃絶	-12.0636
▁浜松	-12.0636
▁distant	-12.0637
▁allocat	-12.0638
▁Hirakata	-12.064
▁小豆	-12.064
▁果て	-12.0641
▁先端	-12.0641
▁emergency	-12.0642
▁護国	-12.0646
▁Retain	-12.0651
▁Kokufu	-12.0651
▁1838	-12.0652
▁Fuchu	-12.0653
▁1841	-12.0654
▁NAGAO	-12.0665
Confucianism	-12.067
まき	-12.067
ppu	-12.0682
▁artistic	-12.0694
▁Craft	-12.0695
▁compromise	-12.0695
▁monopoliz	-12.0695
▁ターミナル	-12.0695
眉	-12.0695
簿	-12.0695
粕	-12.0695
蘆	-12.0695
▁彩色	-12.0695
▁鎖国	-12.0695
▁fond	-12.0695
▁閉鎖	-12.0695
▁ensure	-12.0696
▁戒壇	-12.0696
▁prosperous	-12.0696
▁Hamamatsu	-12.0697
▁巡礼	-12.0697
▁木材	-12.0703
▁染め	-12.0703
▁枚方	-12.0703
▁風味	-12.0705
▁河野	-12.0708
▁tram	-12.0708
▁道教	-12.0709
▁入隊	-12.0713
▁extract	-12.0713
sistance	-12.0721
▁Sakon	-12.0724
▁持ち込	-12.0728
革	-12.0732
奴	-12.0732
塗	-12.0732
Tokugawa	-12.0732
▁prescrib	-12.0737
▁implie	-12.074
▁sung	-12.075
んご	-12.0753
酵	-12.0755
恥	-12.0757
▁Administrative	-12.0757
▁Agricultural	-12.0757
▁Sasayama	-12.0757
▁TOKUDAIJI	-12.0757
▁bonito	-12.0757
▁sprinkl	-12.0757
牢	-12.0757
莫	-12.0757
▁constant	-12.0757
▁Brita	-12.0757
▁鑑賞	-12.0757
▁菊五郎	-12.0758
▁YUKI	-12.0758
▁rising	-12.0758
▁飲食	-12.0758
▁理念	-12.0759
▁seventy	-12.0763
▁manufacturers	-12.0764
▁Kinmei	-12.0771
▁Rakugo	-12.0772
▁terminat	-12.0778
▁unify	-12.0789
硬	-12.0795
瓦	-12.0795
黄	-12.0795
▁involv	-12.0797
▁あらわ	-12.0798
what	-12.0803
該	-12.0818
▁Earthquake	-12.0818
▁Economic	-12.0818
▁Monzeki	-12.0818
▁industries	-12.0818
▁pioneer	-12.0818
▁skirt	-12.0818
▁践祚	-12.0818
且	-12.0818
帆	-12.0818
搬	-12.0818
癒	-12.0818
▁freedom	-12.0818
▁grace	-12.0818
▁slave	-12.0818
▁扶持	-12.0818
▁oracle	-12.0818
▁接近	-12.0819
▁羽織	-12.0819
▁distinctive	-12.0819
▁NAKAGAWA	-12.082
▁左近	-12.082
▁洛中	-12.0823
▁remark	-12.0823
▁三条西	-12.0824
▁Kanemichi	-12.0825
▁bond	-12.0833
▁1846	-12.0838
amous	-12.0839
▁resident	-12.0853
▁restor	-12.0857
損	-12.0858
屋敷	-12.0862
bbed	-12.0868
般	-12.0871
▁Transport	-12.0878
叢	-12.088
豚	-12.088
▁identify	-12.088
▁reception	-12.088
▁アマテラス	-12.088
▁Summer	-12.088
▁clerk	-12.088
▁Consider	-12.0881
▁casual	-12.0881
▁津軽	-12.0881
ONONO	-12.0881
▁winning	-12.0882
▁ビール	-12.0882
▁tray	-12.0882
▁jujutsu	-12.0882
▁毎月	-12.0884
▁Nantan	-12.0884
▁observation	-12.0885
▁jump	-12.0886
▁Moon	-12.0894
▁選手	-12.0895
1335	-12.09
▁trac	-12.0902
代理	-12.0904
▁speak	-12.0907
nished	-12.091
有朋	-12.0915
▁Kikuchi	-12.0916
狭	-12.0921
eastern	-12.0942
▁contradict	-12.0943
▁Goryeo	-12.0943
▁controvers	-12.0943
▁handwriting	-12.0943
▁pirates	-12.0943
▁キャンパス	-12.0943
▁怨霊	-12.0943
冥	-12.0943
殻	-12.0943
絞	-12.0943
▁Iruka	-12.0943
づくり	-12.0943
▁那須	-12.0943
▁swordplay	-12.0944
▁assets	-12.0944
▁Location	-12.0947
▁texture	-12.0947
▁accession	-12.095
▁Kagura	-12.095
▁番頭	-12.0952
kazari	-12.0953
▁Divin	-12.0954
▁満州	-12.0954
▁保安	-12.0956
▁尊王	-12.0957
▁peasant	-12.0976
しゅ	-12.0978
今	-12.0985
福原	-12.0985
両	-12.0985
芝	-12.0986
歳	-12.0986
)	-12.0986
scape	-12.1004
▁danger	-12.1005
遵	-12.1006
究	-12.1006
stronomy	-12.1006
▁Vietnam	-12.1006
▁absence	-12.1006
▁confidence	-12.1006
▁forfeit	-12.1006
▁subsidiar	-12.1006
▁イタリア	-12.1006
▁スポーツ	-12.1006
宸	-12.1006
晶	-12.1006
祠	-12.1006
票	-12.1006
▁Depot	-12.1006
▁Gohojo	-12.1006
▁律宗	-12.1006
▁Children	-12.1006
▁座敷	-12.1007
▁先駆	-12.1008
▁相違	-12.1008
▁thatched	-12.1009
▁ヒコ	-12.1009
fare	-12.1009
▁休日	-12.101
▁Report	-12.101
▁教師	-12.1019
AKU	-12.102
ウム	-12.1035
個	-12.1051
ひと	-12.1055
▁BANDO	-12.1069
▁Saturday	-12.1069
▁turmoil	-12.1069
▁蜂起	-12.1069
俘	-12.1069
卯	-12.1069
哉	-12.1069
壽	-12.1069
熾	-12.1069
爪	-12.1069
▁radish	-12.1069
▁refuge	-12.1069
▁ANDO	-12.1069
▁lawsuit	-12.1069
▁NIWA	-12.1069
▁label	-12.1069
▁厨子	-12.1069
▁provok	-12.1069
▁警戒	-12.107
▁partner	-12.107
▁Light	-12.1071
▁直径	-12.1071
▁筑後	-12.1071
[...]
